'<pad>'
'<EOS>'
', _'
'._'
'_'
'the_'
'die_'
'in_'
'of_'
'to_'
'der_'
's_'
'and_'
'und_'
'a_'
'-_'
'is_'
'that_'
'zu_'
'n_'
' – _'
'en_'
'den_'
'’_'
'e_'
'von_'
'an_'
'for_'
't_'
'ist_'
'es_'
'on_'
'be_'
'das_'
'für_'
'des_'
'eine_'
'sich_'
'auf_'
'as_'
'dass_'
'nicht_'
'it_'
'are_'
'The_'
'ing_'
'with_'
'not_'
'r_'
'by_'
'mit_'
'als_'
'Die_'
'im_'
'ed_'
'have_'
'ein_'
'has_'
'd_'
'was_'
'er_'
'sie_'
' (_'
'will_'
'werden_'
'In_'
'dem_'
'from_'
'their_'
'um_'
'its_'
'US_'
'or_'
'more_'
'einer_'
'at_'
': _'
'sind_'
'China_'
'ung_'
'hat_'
'But_'
'wird_'
'would_'
'wie_'
'y_'
'so_'
'. _'
' “_'
'they_'
'this_'
'auch_'
'than_'
'countries_'
'EU_'
'but_'
'haben_'
'aus_'
'can_'
'which_'
'oder_'
'% _'
'te_'
'zur_'
'durch_'
'?_'
'war_'
'einen_'
'; _'
'world_'
') _'
'all_'
'bei_'
' „_'
'ten_'
'Europe_'
'über_'
'noch_'
'ng_'
'ly_'
'ihre_'
'economic_'
'also_'
'one_'
'nur_'
'been_'
'einem_'
'government_'
'm_'
'sein_'
'only_'
'vor_'
'other_'
'diese_'
'man_'
'nach_'
'should_'
'political_'
'” _'
'new_'
'wenn_'
'we_'
'aber_'
'European_'
'most_'
'were_'
'no_'
''_'
'wir_'
'when_'
'USA_'
'now_'
'such_'
'kann_'
'“ _'
'global_'
'growth_'
'could_'
'who_'
'mehr_'
'financial_'
'wurde_'
'there_'
'if_'
'Welt_'
'Der_'
'country_'
'years_'
'about_'
'people_'
'must_'
'zum_'
'many_'
'even_'
'economy_'
'these_'
'It_'
'Das_'
'into_'
'some_'
'time_'
'l_'
'his_'
'seine_'
'long_'
'dieser_'
'zwischen_'
'may_'
'do_'
'können_'
'This_'
'- _'
'Jahren_'
'crisis_'
'policy_'
'out_'
'könnte_'
'eines_'
'what_'
'Länder_'
',_'
'unter_'
'al_'
'America_'
'yang_'
'had_'
'würde_'
'over_'
'i_'
'müssen_'
'he_'
'Es_'
'ion_'
'gegen_'
'Menschen_'
'ungen_'
'up_'
'’ _'
'power_'
'between_'
'Aber_'
'much_'
'g_'
'Europa_'
'o_'
'ihrer_'
'A_'
'I_'
'Japan_'
' - _'
'Regierung_'
'year_'
'debt_'
'market_'
'international_'
'immer_'
'h_'
'andere_'
'Und_'
')._'
'anderen_'
'1_'
'us_'
'them_'
'k_'
'two_'
'Land_'
'well_'
'system_'
'public_'
'while_'
'any_'
'like_'
'am_'
'And_'
'Iran_'
'ation_'
'dies_'
'Doch_'
'keine_'
'.”_'
'de_'
'), _'
'dan_'
'As_'
'less_'
'United_'
'seiner_'
've_'
'ich_'
'first_'
'after_'
'sollte_'
'politischen_'
'Ländern_'
'own_'
'need_'
'because_'
'Israel_'
'against_'
'Wenn_'
'Sie_'
'sondern_'
'For_'
'2_'
'selbst_'
'high_'
'Jahr_'
'5_'
'wurden_'
'Zeit_'
'trade_'
'our_'
'markets_'
'gibt_'
'state_'
'bis_'
'3_'
'just_'
'those_'
'If_'
'military_'
'far_'
'national_'
'example_'
'too_'
'able_'
'So_'
'während_'
'recent_'
'politische_'
'way_'
'Union_'
'make_'
'letzten_'
'kan_'
'dazu_'
'American_'
'tion_'
're_'
'rate_'
'both_'
'Staaten_'
'support_'
'Jahre_'
'Bank_'
'ers_'
'change_'
'interest_'
'important_'
'governments_'
'da_'
'alle_'
'Ein_'
'last_'
'Politik_'
'banks_'
'still_'
'muss_'
'policies_'
'Indeed_'
'Germany_'
'term_'
'gen_'
'ce_'
'Bush_'
'where_'
'weniger_'
'neue_'
'leaders_'
'le_'
'investment_'
'become_'
'Wachstum_'
'Obama_'
'wieder_'
'Diese_'
'ment_'
'fiscal_'
'c_'
'That_'
'Dollar_'
'Chinese_'
'0_'
'uns_'
'st_'
'how_'
'health_'
'end_'
'damit_'
'Wirtschaft_'
'vom_'
'today_'
'sollten_'
'right_'
'might_'
'heute_'
'diesem_'
'20_'
'risk_'
'rates_'
'likely_'
'jedoch_'
'does_'
'development_'
'ble_'
'4_'
'viele_'
'social_'
'seit_'
'lich_'
'large_'
'foreign_'
'capital_'
'Russia_'
'waren_'
'ren_'
'future_'
'ch_'
'Entwicklung_'
'viel_'
'same_'
'real_'
'income_'
'diesen_'
'India_'
'Im_'
'Eine_'
'current_'
'States_'
' $_'
'würden_'
'wäre_'
'ts_'
'ohne_'
'energy_'
'rs_'
'ihren_'
'economies_'
'better_'
'zwei_'
'problem_'
'neuen_'
'machen_'
'könnten_'
'denen_'
'wo_'
'use_'
'under_'
'rather_'
'major_'
'dieses_'
'di_'
'work_'
'ter_'
'etwa_'
'Unternehmen_'
'President_'
'z_'
'weil_'
'including_'
'eurozone_'
'being_'
'lassen_'
'institutions_'
'did_'
'course_'
'Präsident_'
'Investitionen_'
'GDP_'
'without_'
'through_'
'made_'
'ihr_'
'down_'
'There_'
'then_'
'nd_'
'allerdings_'
'Krise_'
'8_'
'tax_'
'sogar_'
'fact_'
'another_'
'UN_'
'Dies_'
'rn_'
'private_'
'her_'
'wirtschaftlichen_'
'sten_'
'problems_'
'order_'
'least_'
'keit_'
'jetzt_'
'help_'
'Macht_'
'Frage_'
'Deutschland_'
'000_'
'wirtschaftliche_'
'seinen_'
'prices_'
'Iraq_'
'France_'
'three_'
'sowie_'
'per_'
'led_'
'human_'
'among_'
'Millionen_'
'6_'
',” _'
'result_'
'increase_'
'europäischen_'
'dann_'
'Maßnahmen_'
'states_'
'ob_'
'kommen_'
'darauf_'
'bereits_'
'Regierungen_'
'very_'
'take_'
'part_'
'inflation_'
'globalen_'
'führen_'
'Unterstützung_'
'spending_'
'low_'
'halten_'
'good_'
'already_'
'7_'
'off_'
'ns_'
'nden_'
'meisten_'
'lichen_'
'ions_'
'hin_'
'f_'
'emerging_'
'Landes_'
'2008_'
'weiter_'
'tun_'
'stellen_'
'process_'
'poor_'
'nun_'
'nuclear_'
'ne_'
'making_'
'hatte_'
'growing_'
'billion_'
'allem_'
'We_'
'Ende_'
'sehr_'
'reform_'
'negara_'
'little_'
'dafür_'
'before_'
'Russland_'
'Banken_'
'ous_'
'needed_'
'ies_'
'higher_'
'ern_'
'enden_'
'central_'
'cannot_'
'They_'
'At_'
';_'
'put_'
'free_'
'chinesischen_'
'When_'
'rise_'
'nen_'
'needs_'
'ity_'
'ihnen_'
'hen_'
'demand_'
'ar_'
'Moreover_'
'Greece_'
'Fall_'
'Chinas_'
'BIP_'
'since_'
'ry_'
'rights_'
'liche_'
'iert_'
'continue_'
'Wir_'
'Rolle_'
'why_'
'p_'
'labor_'
'großen_'
'go_'
'democracy_'
'clear_'
'Tatsächlich_'
'Problem_'
'liegt_'
'ive_'
'ieren_'
'eigenen_'
'come_'
'case_'
'Vereinigten_'
'Milliarden_'
'Fed_'
'ted_'
'security_'
'schon_'
'number_'
'means_'
'ische_'
'ic_'
'dabei_'
'back_'
'9_'
'30_'
'sector_'
'million_'
'kein_'
'gegenüber_'
'et_'
'ago_'
'Weg_'
'To_'
'New_'
'Irak_'
'Auch_'
'Asia_'
'used_'
'toward_'
'oil_'
'next_'
'geht_'
'ge_'
'few_'
'developing_'
'With_'
'" _'
'w_'
'ty_'
'member_'
'greater_'
'companies_'
'citizens_'
'amerikanischen_'
'These_'
'Probleme_'
'Even_'
'Euro_'
'whether_'
'ting_'
'steht_'
'reforms_'
'nya_'
'monetary_'
'level_'
'ischen_'
'decades_'
'costs_'
'climate_'
'chen_'
'century_'
'bringen_'
'ben_'
'almost_'
'age_'
'Africa_'
'services_'
'schen_'
'ors_'
'often_'
'men_'
'life_'
'hard_'
'etwas_'
'called_'
'based_'
'around_'
'World_'
'E'
'Amerika_'
'ya_'
'region_'
'president_'
'force_'
'control_'
'best_'
'beim_'
'akan_'
'Krieg_'
'Eurozone_'
'Demokratie_'
'short_'
'however_'
'geben_'
'forces_'
'ert_'
'during_'
'cht_'
'ab_'
' "_'
'wenig_'
'systems_'
'role_'
'recently_'
'price_'
'deren_'
'democratic_'
'besteht_'
'West_'
'S'
'Politiker_'
'One_'
'Institutionen_'
'Bedeutung_'
', “_'
' _'
'yet_'
'untuk_'
'though_'
'strong_'
'nt_'
'land_'
'große_'
'given_'
'fast_'
'currency_'
'ally_'
'Putin_'
'Grund_'
'French_'
'Europas_'
'East_'
'Britain_'
'within_'
'weiterhin_'
'u_'
'stability_'
'se_'
'remains_'
'pro_'
'point_'
'innerhalb_'
'indem_'
'increasingly_'
'face_'
'einige_'
'budget_'
'benefits_'
'bank_'
'aufgrund_'
'Ukraine_'
'Teil_'
'Region_'
'Art_'
'Als_'
'160_'
'15_'
'10_'
'öffentlichen_'
'you_'
'taken_'
'see_'
'parties_'
'know_'
'heit_'
'globale_'
'ent_'
'each_'
'doch_'
'beiden_'
'Wie_'
'Was_'
'Sicherheit_'
'September_'
'Minister_'
'Lage_'
'Großbritannien_'
'Führung_'
'Arab_'
'zwar_'
'seems_'
'sch_'
'remain_'
'party_'
'nehmen_'
'me_'
'especially_'
'dari_'
'Während_'
'IMF_'
'Europäischen_'
'weit_'
'vielen_'
'ur'
'strategy_'
'say_'
'resources_'
'possible_'
'nde_'
'möglicherweise_'
'money_'
'measures_'
'macht_'
'internationale_'
'interests_'
'gut_'
'get_'
'fall_'
'ersten_'
'different_'
'davon_'
'che_'
'bleiben_'
'bar_'
'anti_'
'What_'
'Prozent_'
'NATO_'
'B'
'Afghanistan_'
'tidak_'
'terms_'
'technology_'
'ss_'
'society_'
'sche_'
'reduce_'
'provide_'
'potential_'
'politik_'
'members_'
'ja'
'issue_'
'gehen_'
'finden_'
'erreichen_'
'einfach_'
'domestic_'
'deficit_'
'common_'
'Yet_'
'While_'
'I'
'40_'
'share_'
'others_'
'ons_'
'never_'
'nationalen_'
'longer_'
'internationalen_'
'history_'
'exchange_'
'euro_'
'enough_'
'ende_'
'education_'
'areas_'
'always_'
'again_'
'Weise_'
'South_'
'Reformen_'
'Partei_'
'L'
'German_'
'Central_'
'A'
'wahrscheinlich_'
'view_'
'value_'
'unsere_'
'stehen_'
'small_'
'significant_'
'reason_'
'politicians_'
'place_'
'left_'
'key_'
'ever_'
'effective_'
'difficult_'
'daher_'
'challenges_'
'care_'
'administration_'
'G'
'F'
'By_'
'Arbeit_'
'“, _'
'wollen_'
'ties_'
'similar_'
'serious_'
'population_'
'past_'
'once_'
'insbesondere_'
'ini_'
'infrastructure_'
'information_'
'ging_'
'führt_'
'further_'
'eher_'
'believe_'
'beispielsweise_'
'Zukunft_'
'O'
'Mit_'
'Italy_'
'Geld_'
' '
'women_'
'th_'
'set_'
'pay_'
'non_'
'ness_'
'len_'
'igen_'
'einmal_'
'efforts_'
'bleibt_'
'allen_'
'War_'
'Grundlage_'
'Geschichte_'
'Do'
'Amerikas_'
'Americans_'
'60_'
'want_'
'second_'
'particularly_'
'lower_'
'llen_'
'levels_'
'law_'
'lange_'
'ins_'
'finance_'
'early_'
'dessen_'
'day_'
'create_'
'cost_'
'chinesische_'
'aller_'
'T'
'N'
'Kosten_'
'Beziehungen_'
': „_'
'workers_'
'thus_'
'seinem_'
'scheint_'
'impact_'
'ie_'
'half_'
'done_'
'business_'
'ary_'
'approach_'
'amerikanische_'
'address_'
'access_'
'Um_'
'Präsidenten_'
'Of_'
'Korea_'
'Gewalt_'
'British_'
'Auswirkungen_'
'/_'
'ze_'
'ungs'
'unemployment_'
'true_'
'threat_'
'think_'
'themselves_'
'tatsächlich_'
'sense_'
'programs_'
'open_'
'nichts_'
'mis'
'massive_'
'ig_'
'former_'
'food_'
'fen_'
'erste_'
'election_'
'drei_'
'deficits_'
'decision_'
'Wirtschafts'
'Tatsache_'
'P'
'Interessen_'
'IWF_'
'Frankreich_'
'C'
'50_'
'z'
'weitere_'
'start_'
'sowohl_'
'si_'
'rules_'
'regime_'
'ments_'
'kommt_'
'ken_'
'ht_'
'great_'
'find_'
'effect_'
'dollar_'
'developed_'
'ations_'
'Western_'
'UK_'
'Schritt_'
'North_'
'Man_'
'Indien_'
'Ich_'
'Hamas_'
'Er_'
'2010_'
'2009_'
'wären_'
'several_'
'question_'
'progress_'
'obwohl_'
'line_'
'legal_'
'leading_'
'jobs_'
'ia_'
'hätte_'
'großer_'
'fear_'
'conflict_'
'capacity_'
'ber'
'Ziele_'
'Ziel_'
'Turkey_'
'Today_'
'Staat_'
'Rezession_'
'Ra'
'Lösung_'
'Leben_'
'Israeli_'
'Instead_'
'Griechenland_'
'Bevölkerung_'
'1990_'
'Über'
'ziehen_'
'violence_'
'um'
'sta'
'run_'
'poverty_'
'politics_'
'ns'
'ngen_'
'nce_'
'local_'
'issues_'
'ismus_'
'ganz_'
'ebenso_'
'ds_'
'created_'
'community_'
'comes_'
'challenge_'
'big_'
'anti'
'agreement_'
'action_'
'W_'
'Strategie_'
'Natürlich_'
'Nachfrage_'
'Markt_'
'M'
'Internet_'
'Finanz'
'Egypt_'
'Ansatz_'
'о'
'wohl_'
'wealth_'
'vielleicht_'
'verhindern_'
'sen_'
'self_'
'rt_'
'risks_'
'rich_'
'rei'
'regional_'
'raise_'
'program_'
'policymakers_'
'per'
'particular_'
'nbsp_'
'll_'
'lack_'
'ige_'
'hohen_'
'him_'
'ensure_'
'elections_'
'decade_'
'daran_'
'away_'
'ated_'
'angesichts_'
'ab'
'Veränderungen_'
'System_'
'Möglichkeit_'
'International_'
'Einkommen_'
'Bo'
'Beispiel_'
'Angesichts_'
'zunehmend_'
'worden_'
'ter'
'ste_'
'sei_'
'sehen_'
'seem_'
'rule_'
'rising_'
'return_'
'research_'
'officials_'
'late_'
'ism_'
'il_'
'ierung_'
'idea_'
'hope_'
'home_'
'genau_'
'form_'
'firms_'
'failed_'
'europäische_'
'erhalten_'
'ens_'
'employment_'
'effects_'
'dengan_'
'decline_'
'darüber_'
'bereit_'
'aufge'
'account_'
'Revolution_'
'National_'
'Mittel_'
'Mitglieder_'
'La'
'Federal_'
'Entscheidung_'
'Ent'
'Council_'
'Brexit_'
'Brazil_'
'Bei_'
'Auf_'
'2007_'
'--_'
'%._'
'с'
'turn_'
'tu'
'standards_'
'solche_'
'said_'
're'
'production_'
'old_'
'nothing_'
'mus_'
'lässt_'
'ls_'
'lead_'
'ian_'
'größten_'
'gas_'
'four_'
'eren_'
'debate_'
'd'
'credit_'
'consumption_'
'confidence_'
'close_'
'carbon_'
'balance_'
'U'
'Schulden_'
'Schulden'
'R_'
'Obwohl_'
'Ha'
'Gesellschaft_'
'Folgen_'
'Fi'
'Erfolg_'
'Er'
'Einsatz_'
'Einfluss_'
'Al'
'After_'
'т'
'x_'
'ure_'
'ur_'
'under'
'times_'
'supply_'
'solution_'
'schaffen_'
'ro'
'response_'
'relations_'
'no'
'nie_'
'my_'
'lediglich_'
'jeder_'
'itself_'
'ihres_'
'ihrem_'
'heiten_'
'el_'
'el'
'derzeit_'
'data_'
'cy_'
'cooperation_'
'ck_'
'ck'
'ant_'
'agenda_'
'advanced_'
'ad'
'Weltwirtschaft_'
'Welt'
'S_'
'Russian_'
'Ressourcen_'
'On_'
'Ne'
'Fund_'
'Frauen_'
'Druck_'
'D_'
'B_'
'Ausgaben_'
'Arbeits'
'2012_'
'2001_'
' _'
'öffentliche_'
'together_'
'rest_'
'require_'
'position_'
'popular_'
'peace_'
'pada_'
'opportunities_'
'net_'
'necessary_'
'living_'
'les_'
'leadership_'
'include_'
'habe_'
'groups_'
'give_'
'gab_'
'funds_'
'failure_'
'evidence_'
'erreicht_'
'deutlich_'
'despite_'
'denn_'
'cause_'
'bonds_'
'bisher_'
'bad_'
'average_'
'authorities_'
'Wert_'
'V'
'Unter'
'Ta'
'Sta'
'Prime_'
'Palestinian_'
'Pakistan_'
'Inflation_'
'Herausforderung_'
'Europeans_'
'Development_'
'Chance_'
'Armut_'
'An_'
'25_'
'2014_'
'2000_'
'&_'
'“._'
'whose_'
'warum_'
'vote_'
'using_'
'success_'
'situation_'
'side_'
'si'
'shift_'
'reality_'
'plan_'
'opportunity_'
'ner_'
'months_'
'model_'
'ling_'
'job_'
'ität_'
'investors_'
'having_'
'genug_'
'following_'
'em_'
'disease_'
'der'
'da'
'coming_'
'beyond_'
'b_'
'ate_'
'allein_'
'Zusammenarbeit_'
'Vergangenheit_'
'Trump_'
'Some_'
'Recht_'
'Prozess_'
'Middle_'
'Latin_'
'Italien_'
'Global_'
'George_'
'Gefahr_'
'Fe'
'Dieser_'
'Da_'
'D'
'CO2_'
'Bereich_'
'Barack_'
'Aus_'
'” – _'
'а'
'ßen_'
'  _'
'zi'
'wobei_'
'welche_'
'weapons_'
'voters_'
'unge'
'third_'
'schnell_'
'productivity_'
'pro'
'perhaps_'
'owing_'
'os_'
'oft_'
'negative_'
'me'
'ka'
'is'
'inter'
'ine_'
'ihm_'
'hätten_'
'hohe_'
'hinaus_'
'hatten_'
'goods_'
'gar_'
'gain_'
'full_'
'external_'
'erung_'
'erhöhen_'
'emissions_'
'ely_'
'elsewhere_'
'dort_'
'darin_'
'conditions_'
'boost_'
'bedeutet_'
'banking_'
'b'
'annual_'
'ang_'
'an'
'alles_'
'Wirtschaftswachstum_'
'T_'
'Syria_'
'Such_'
'Se'
'Saudi_'
'R'
'Party_'
'Nach_'
'Na'
'NEW_'
'Muslim_'
'Lo'
'Kinder_'
'Je'
'In'
'Da'
'Commission_'
'Bürger_'
'Bemühungen_'
'All_'
'Ab'
'7'
'11_'
'zurück_'
'zen_'
'wrong_'
'wissen_'
'wa'
'ver_'
'to'
'technologies_'
'sure_'
'ss'
'seen_'
'refugees_'
'probably_'
'prevent_'
'powerful_'
'nu'
'nd'
'mon'
'lost_'
'lebih_'
'largest_'
'keinen_'
'ke_'
'jüngsten_'
'ine'
'increased_'
'ie'
'helfen_'
'gute_'
'gemacht_'
'geführt_'
'five_'
'exports_'
'every_'
'ent'
'ei'
'ehen_'
'deal_'
'cultural_'
'consequences_'
'concerns_'
'certainly_'
'burden_'
'auszu'
'ati'
'abzu'
'Zugang_'
'Zinsen_'
'W'
'Vor_'
'Türkei_'
'To'
'Staats'
'Many_'
'Ma'
'Kredit'
'Ja'
'Gesundheits'
'Gesamt'
'G_'
'Europäische_'
'Erholung_'
'Ergebnis_'
'Energie'
'E_'
'Clinton_'
'2011_'
'1980_'
'über'
'Ökonomen_'
'Öffentlichkeit_'
'wirklich_'
've'
'up'
'until_'
'union_'
'tra'
'total_'
'te'
'stellt_'
'status_'
'stand_'
'ses_'
'pressure_'
'period_'
'nach'
'ma_'
'leader_'
'later_'
'l'
'konnten_'
'kam_'
'industry_'
'ien_'
'held_'
'gt_'
'freedom_'
'f'
'erkennen_'
'ein'
'defense_'
'city_'
'children_'
'campaign_'
'besser_'
'aufzu'
'ah_'
'abge'
'a'
'Z'
'Volkswirtschaften_'
'Richtung_'
'Reserve_'
'Kommission_'
'Japanese_'
'Investoren_'
'Hilfe_'
'Gemeinschaft_'
'Für_'
'Europäer_'
'De'
'Arbeitslosigkeit_'
'2013_'
'2005_'
'12_'
'100_'
'(_'
'ö'
'ying_'
'ya'
'vergangenen_'
'unterstützen_'
'tragen_'
'tions_'
'stark_'
'six_'
'seines_'
'provided_'
'politischer_'
'nächsten_'
'nk'
'negotiations_'
'natürlich_'
'modern_'
'middle_'
'mag_'
'ma'
'los_'
'k'
'jene_'
'individual_'
'ierten_'
'häufig_'
'he'
'gi'
'g'
'fight_'
'fe'
'fallen_'
'environment_'
'elected_'
'einigen_'
'economists_'
'du'
'ding_'
'derartige_'
'commitment_'
'caused_'
'benefit_'
'ay_'
'aus'
'along_'
'aid_'
'Zahl_'
'Wahlen_'
'Stabilität_'
'Sicherheits'
'Regierungs'
'Kapital'
'Islam_'
'He_'
'Grenzen_'
'Fragen_'
'ECB_'
'Ca'
'CAMBRIDGE_'
'Ber'
'Aus'
'Asien_'
'Asian_'
'African_'
'%, _'
'zumindest_'
'weltweit_'
'ways_'
'water_'
'vor'
'unserer_'
'trotz_'
'taking_'
'sustainable_'
'successful_'
'stronger_'
'steigen_'
'source_'
'simply_'
'setzen_'
'se'
'revolution_'
'relativ_'
'really_'
'pp'
'post_'
'pi'
'p'
'op'
'nis_'
'nearly_'
'ne'
'n'
'move_'
'mor'
'mo'
'media_'
'lose_'
'look_'
'kind_'
'integration_'
'instead_'
'influence_'
'gilt_'
'ga'
'fünf_'
'fundamental_'
'forced_'
'focus_'
'fi'
'either_'
'effort_'
'dalam_'
'cut_'
'civil_'
'came_'
'call_'
'cal_'
'build_'
'bieten_'
'betrachtet_'
'besonders_'
'behavior_'
'arbeiten_'
'anzu'
'al'
'aktuellen_'
'actually_'
'ability_'
'Westen_'
'Wahl_'
'Vertrauen_'
'Ungleichheit_'
'Risiko_'
'Risiken_'
'Plan_'
'Osten_'
'O_'
'Ni'
'Märkte_'
'Mo'
'Militär'
'Mehrheit_'
'Infrastruktur_'
'Handel_'
'Firmen_'
'Allerdings_'
'Afrika_'
'70_'
' % _'
'у'
'к'
'young_'
'wing_'
'unternehmen_'
'tri'
'teil'
't'
'sozialen_'
'something_'
'so'
'sin'
'ring_'
'reserves_'
'requires_'
'recovery_'
'rapidly_'
'quickly_'
'nutzen_'
'natural_'
'na'
'mi'
'mean_'
'matter_'
'lu'
'lt_'
'lt'
'letztlich_'
'ler_'
'larger_'
'largely_'
'lag_'
'ks_'
'ji'
'ings_'
'increasing_'
'huge_'
'ha'
'gu'
'größte_'
'governance_'
'goal_'
'glauben_'
'gesch'
'erst_'
'ebenfalls_'
'direct_'
'ca'
'behind_'
'bare_'
'ar'
'across_'
'achieve_'
'Un'
'Seiten_'
'Re'
'P_'
'Or'
'Now_'
'Nationen_'
'Most_'
'Kampf_'
'Ka'
'Ju'
'Israelis_'
'Interesse_'
'Gaza_'
'First_'
'Finanzkrise_'
'Ein'
'Ar'
'18'
'y'
'worldwide_'
'wichtig_'
'wi'
'weltweiten_'
'war'
'w'
'verringern_'
'un'
'things_'
'test_'
'target_'
'tahun_'
'strategic_'
'statt_'
'star'
'spe'
'soll_'
'single_'
'sh_'
'schwer_'
'scher_'
'reduced_'
'red_'
'recession_'
'reasons_'
'ra'
'presidential_'
'play_'
'ou'
'near_'
'mich_'
'm'
'lä'
'limited_'
'liegen_'
'li'
'lang_'
'ko'
'ki'
'je_'
'institutional_'
'independent_'
'indeed_'
'ihn_'
'hr'
'group_'
'führte_'
'ft_'
'eten_'
'es'
'environmental_'
'eb'
'dadurch_'
'culture_'
'class_'
'cities_'
'che'
'changes_'
'cha'
'certain_'
'bri'
'betrachten_'
'became_'
'attacks_'
'ans_'
'anders_'
'and'
'Zusammenhang_'
'Zentralbank_'
'York_'
'Rechts'
'Mu'
'Mi'
'Mal_'
'K'
'Idee_'
'H'
'Gu'
'Globalisierung_'
'EZB_'
'Dis'
'Debatte_'
'Congress_'
'C_'
'Bildung_'
'Bezug_'
'Argentina_'
'80_'
'äu'
'Ägypten_'
'zeit_'
'zehn_'
'worse_'
'willing_'
'weise_'
'v_'
'unterstützt_'
'unter'
'une'
'suggests_'
'stärker_'
'stock_'
'scale_'
'ru'
'ri'
'religious_'
'relationship_'
'pre'
'performance_'
'para'
'outside_'
'opposition_'
'oli'
'nation_'
'moral_'
'manufacturing_'
'majority_'
'main_'
'loans_'
'lines_'
'legen_'
'klar_'
'king_'
'kaum_'
'ind'
'in'
'ied_'
'höhere_'
'households_'
'hin'
'her'
'hand_'
'gewährleisten_'
'found_'
'feel_'
'experience_'
'expansion_'
'eu'
'dis'
'dia'
'ct_'
'creation_'
'competitive_'
'collapse_'
'bring_'
'alone_'
'Teilen_'
'Spanien_'
'Sozial'
'Rück'
'Ru'
'Pri'
'Notwendigkeit_'
'Mexico_'
'Kingdom_'
'Islamic_'
'Handels'
'Great_'
'Ge'
'F_'
'Entwicklungs'
'Du'
'Car'
'Behörden_'
'Bedingungen_'
'Anzahl_'
'Am_'
'Al_'
'8'
'5'
'2006_'
'2004_'
'2003_'
'14_'
'ст'
'р'
'з'
'е'
'zuge'
'zed_'
'working_'
'weltweite_'
'vier_'
'victory_'
'values_'
'turned_'
'traditional_'
'towards_'
'top_'
'taxes_'
'soziale_'
'sm_'
'sicher_'
'she_'
'ser'
'sa'
'reichen_'
'qui'
'pu'
'proposed_'
'projects_'
'positive_'
'po'
'overall_'
'over'
'ory_'
'official_'
'nature_'
'nationale_'
'mu'
'ms_'
'lives_'
'liberal_'
'leisten_'
'keep_'
'jedes_'
'jede_'
'ite'
'int'
'innovation_'
'improve_'
'i'
'hy'
'housing_'
'hold_'
'ho'
'handelt_'
'gs_'
'gerade_'
'fördern_'
'existing_'
'erk'
'entwickelt_'
'ens'
'ene'
'einzu'
'einschließlich_'
'easy_'
'dunia_'
'dri'
'do'
'deep_'
'dar'
'cs_'
'ch'
'cally_'
'body_'
'bin_'
'began_'
'austerity_'
'ating_'
'asset_'
'amount_'
'alten_'
'Spain_'
'Situation_'
'Second_'
'Sa'
'Pi'
'Parteien_'
'No_'
'Nahen_'
'Menschenrechte_'
'Me'
'Lu'
'Korruption_'
'Kontrolle_'
'Jahrhundert_'
'Inter'
'Höhe_'
'Greek_'
'Given_'
'Form_'
'Ex'
'Economic_'
'Dienstleistungen_'
'Cameron_'
'Bericht_'
'Bereichen_'
'Bedrohung_'
'Auf'
'According_'
'2015_'
'16_'
'ы'
'Öl'
' % _'
'zeigt_'
'zahlen_'
'won_'
'wo'
'wichtige_'
'whom_'
'verschiedenen_'
'uns'
'unlikely_'
'uni'
'took_'
'ti'
'thing_'
'super'
'study_'
'structural_'
'sto'
'starke_'
'staatlichen_'
'ski'
'show_'
'sagen_'
'ret'
'results_'
'report_'
'relatively_'
'ras'
'ra_'
'quality_'
'produced_'
'privaten_'
'pri'
'on'
'og'
'notwendig_'
'ning_'
'neither_'
'möglich_'
'membership_'
'meet_'
'management_'
'lten_'
'lo'
'krise_'
'ju'
'ina'
'ility_'
'hi'
'h'
'gri'
'gra'
'go'
'geworden_'
'gemeinsam_'
'gebracht_'
'ga_'
'ff_'
'family_'
'fail_'
'ete_'
'est_'
'ermöglichen_'
'erfordert_'
'entwickeln_'
'ence_'
'ed'
'deutschen_'
'decisions_'
'de'
'compared_'
'committed_'
'bur'
'building_'
'bly_'
'bet'
'beitragen_'
'basis_'
'back'
'available_'
'atau_'
'arabischen_'
'ange'
'allow_'
'above_'
'Währungs'
'Strategien_'
'Seite_'
'Secretary_'
'Schließlich_'
'Regime_'
'Regeln_'
'Reaktion_'
'Per'
'November_'
'Merkel_'
'Markt'
'Krieges_'
'Kosovo_'
'Ko'
'Jahrhunderts_'
'Its_'
'Investitions'
'Hu'
'Haupt'
'Geldpolitik_'
'Gegen'
'Führer_'
'Frieden_'
'Entscheidungen_'
'Brasilien_'
'Ben'
'Beginn_'
'Be'
'Aufmerksamkeit_'
'Ansicht_'
'An'
'6'
'.“ _'
', „_'
'и'
'ür'
'ä'
'zweite_'
'zurück'
'zeigen_'
'zation_'
'xi'
'wirtschaftlicher_'
'win'
'weder_'
'we'
'vi'
'verz'
'verbessern_'
'us'
'tät_'
'tre'
'tes_'
'terrorism_'
'swe'
'sub'
'story_'
'steuer'
'staatliche_'
'st'
'ssen_'
'spielen_'
'sovereign_'
'sorgen_'
'soon_'
'sen'
'seemed_'
'seek_'
'schließlich_'
'san'
'rma'
'reducing_'
'ran_'
'radical_'
'protection_'
'protect_'
'par'
'om'
'ok'
'nämlich_'
'ngs'
'militärische_'
'mel'
'malaria_'
'mal_'
'le'
'lagen_'
'known_'
'ka_'
'iti'
'investments_'
'ing'
'inequality_'
'imports_'
'ierte_'
'höher_'
'hoch_'
'historical_'
'hinter_'
'here_'
'größere_'
'globalization_'
'gemeinsame_'
'ged'
'fully_'
'ful_'
'framework_'
'fragen_'
'faces_'
'einzige_'
'ef'
'edi'
'ea'
'durch'
'direction_'
'diplomatic_'
'demokratischen_'
'ded_'
'deaths_'
'cuts_'
'crises_'
'consumers_'
'chi'
'brauchen_'
'bietet_'
'bekommen_'
'beginning_'
'ban'
'attention_'
'at'
'asi'
'as'
'appears_'
'ance_'
'ag'
'act_'
'acht_'
'Zusammenbruch_'
'Zu'
'Zentralbanken_'
'Ze'
'YORK_'
'Währung_'
'Wähler_'
'Wieder'
'Verhandlungen_'
'UNO_'
'Su'
'Steuer'
'Selbst'
'Seit_'
'Schutz_'
'Reform_'
'Rechte_'
'Programm_'
'Produktion_'
'Pe'
'Only_'
'More_'
'Mexiko_'
'Meinung_'
'Lebens'
'Klima'
'Jahres_'
'How_'
'Herausforderungen_'
'Her'
'Haushalts'
'Gruppen_'
'Financial_'
'Fa'
'Dia'
'Di'
'Both_'
'Außerdem_'
'Anteil_'
'Although_'
'Ac'
'Absch'
'300_'
' , _'
'қа'
'м'
'ß'
'zone_'
'ys_'
'x'
'wor'
'wei'
'warming_'
'urban_'
'unver'
'understanding_'
'understand_'
'unbe'
'ub'
'turning_'
'tt'
'tru'
'treten_'
'transition_'
'ton_'
'tan_'
'ta'
'sur'
'students_'
'steps_'
'schaft_'
'save_'
'san_'
'rund_'
'relative_'
'regulation_'
'questions_'
'principle_'
'post'
'ping_'
'path_'
'parts_'
'outcome_'
'onen_'
'nten_'
'news_'
'mus'
'miss'
'minister_'
'millions_'
'matters_'
'mass_'
'maintain_'
'länger_'
'ls'
'live_'
'kon'
'knowledge_'
'ke'
'ize_'
'insurance_'
'industrial_'
'ig'
'hu'
'hol'
'hing_'
'ground_'
'gleichzeitig_'
'gleich'
'gl'
'gg'
'general_'
'gel'
'falsch_'
'et'
'ess_'
'erforderlich_'
'entire_'
'emp'
'eigentlich_'
'eg'
'eben_'
'develop_'
'dec'
'cul'
'critical_'
'co'
'ci'
'causes_'
'can'
'businesses_'
'bu'
'bt_'
'bility_'
'bek'
'beide_'
'bedarf_'
'bar'
'ba'
'addition_'
'ad_'
'Zu_'
'Werte_'
'Weltbank_'
'Wa'
'Viele_'
'Thema_'
'Syrien_'
'State_'
'Soviet_'
'Russlands_'
'Robert_'
'Pro'
'Preis'
'Pa'
'Ost'
'Opfer_'
'Li'
'Last_'
'LONDON_'
'Ke'
'Heute_'
'Ebene_'
'Durch_'
'Depression_'
'Bre'
'Bildungs'
'Alternative_'
'Ak'
'9'
'19_'
'.“_'
'“_'
'і'
'н_'
'л'
'ж'
'де'
'ör'
'öl'
'äußer'
'äre_'
'ß_'
'wegen_'
'weak_'
'vis'
'ver'
'unterschiedlichen_'
'ungefähr_'
'u'
'tzen_'
'tung_'
'try_'
'tro'
'treatment_'
'tly_'
'tive_'
'thought_'
'theory_'
'th'
'stellte_'
'später_'
'spread_'
'sollen_'
'solidarity_'
'sf'
'sel'
'russischen_'
'russische_'
'rou'
'rn'
'rel'
'recognize_'
'powers_'
'plans_'
'places_'
'pas'
'output_'
'offer_'
'nor_'
'nie'
'neu_'
'neighbors_'
'nahme_'
'month_'
'man'
'makes_'
'macroeconomic_'
'lle_'
'kürzlich_'
'kosten_'
'konzentrieren_'
'konnte_'
'kommenden_'
'it'
'isierung_'
'inzwischen_'
'incentives_'
'igkeit_'
'ideas_'
'hoch'
'hl'
'heutigen_'
'harus_'
'ght_'
'ger'
'fort'
'for'
'ffe'
'fel'
'expected_'
'event_'
'erb'
'era'
'equal_'
'enormous_'
'empf'
'einge'
'ehemaligen_'
'doing_'
'deshalb_'
'deliver_'
'death_'
'days_'
'dangerous_'
'crimes_'
'corruption_'
'continues_'
'construction_'
'competitiveness_'
'claim_'
'cher_'
'chance_'
'britische_'
'boom_'
'bo'
'bio'
'basic_'
'baren_'
'bald_'
'bahwa_'
'assets_'
'apa'
'aimed_'
'advantage_'
'adopted_'
'Wo'
'Vorteile_'
'Volkswirtschaft_'
'Volks'
'Verantwortung_'
'Venezuela_'
'Va'
'Um'
'Tu'
'Ti'
'Their_'
'Steuern_'
'So'
'Selbst_'
'Schaffung_'
'Rückgang_'
'Ro'
'Res'
'Preis_'
'Not'
'No'
'Nations_'
'Möglichkeiten_'
'Muslims_'
'Mittel'
'Mil'
'Man'
'Macht'
'Land'
'Japans_'
'Jahrzehnt_'
'Internationalen_'
'Ho'
'Hi'
'HIV_'
'Gleich'
'Gesellschaften_'
'Geld'
'Fehler_'
'Entwicklungsländern_'
'Dar'
'Betr'
'Ausland_'
'Arbeitsplätze_'
'Angst_'
'18_'
'übernehmen_'
'är'
'Öl_'
'zuvor_'
'zusammen_'
'zing_'
'wodurch_'
'wider_'
'weiteren_'
'wants_'
'v'
'uss'
'unk'
'ul_'
'treffen_'
'tin'
'tim'
'tan'
'struggle_'
'stri'
'step_'
'starken_'
'ssi'
'spo'
'simple_'
'setzt_'
'service_'
'serve_'
'sectors_'
'schr'
'sche'
'saving_'
'sanctions_'
'rt'
'rk'
'responsibility_'
'res_'
'remained_'
'regionale_'
'prime_'
'poli'
'pla'
'pay'
'partly_'
'pan'
'pal'
'owned_'
'ori'
'or'
'ons'
'office_'
'nta'
'nt'
'nsi'
'ng'
'neuer_'
'ned_'
'nder'
'ming_'
'merely_'
'mach'
'lösen_'
'liquidity_'
'licher_'
'lag'
'la_'
'la'
'ks'
'kri'
'jo'
'je'
'ized_'
'isch_'
'ir_'
'intervention_'
'individuals_'
'increases_'
'implement_'
'imbalances_'
'ik_'
'if'
'id_'
'hinsichtlich_'
'heißt_'
'happened_'
'hal'
'gewesen_'
'gestellt_'
'gesagt_'
'ger_'
'generation_'
'gan_'
'fore'
'financing_'
'falls_'
'extreme_'
'export_'
'everyone_'
'events_'
'established_'
'erwartet_'
'erst'
'erneut_'
'ern'
'erklären_'
'en'
'ement_'
'egen_'
'ech'
'drug_'
'dor'
'designed_'
'darunter_'
'dapat_'
'damals_'
'contain'
'con'
'built_'
'break_'
'break'
'braucht_'
'bestimmt_'
'below_'
'befinden_'
'be'
'bal'
'avoid_'
'authority_'
'attack_'
'argue_'
'anything_'
'ans'
'agricultural_'
'aft_'
'active_'
'abs'
'Zeiten_'
'Wahl'
'Vers'
'Trade_'
'Technologie_'
'Schwierigkeiten_'
'Schi'
'Sarkozy_'
'Po'
'Personen_'
'People_'
'Ohne_'
'Nicht_'
'Nachbarn_'
'Monetary_'
'London_'
'Likewise_'
'Le'
'Lateinamerika_'
'Ku'
'Kopf_'
'Jahrzehnten_'
'Integration_'
'Ihre_'
'Groß'
'Go'
'General_'
'Gelegenheit_'
'Euro'
'Daten_'
'Chinesen_'
'Bu'
'Bi'
'Auto'
'Anstieg_'
'Anfang_'
'Amerikaner_'
'Administration_'
': “_'
'3'
'.” _'
'. _'
'.)_'
'."_'
', '
'в'
'überhaupt_'
'ät_'
'ys'
'your_'
'xe'
'worked_'
'widely_'
'wide_'
'wichtigsten_'
'whole_'
'wert_'
'welt'
'welfare_'
'wal'
'wages_'
'vision_'
'ves_'
'versch'
'vermeiden_'
'ven'
'val'
'ug'
'uf'
'truth_'
'trend_'
'tischen_'
'tie'
'tersebut_'
'telah_'
'teilweise_'
'tas'
'sy'
'suffer_'
'stärken_'
'stra'
'stimulus_'
'ster'
'ste'
'spent_'
'sometimes_'
'solchen_'
'smus_'
'slow_'
'size_'
'severe_'
'sektor_'
'schi'
'sam'
'rück'
'rse'
'rien'
'resolve_'
'reich'
'regulatory_'
'reflects_'
'react'
'rapid_'
'prosperity_'
'primary_'
'presidency_'
'practice_'
'populist_'
'piel'
'pan_'
'out'
'offensichtlich_'
'ob'
'nen'
'nations_'
'mm'
'miteinander_'
'mit'
'min'
'mie'
'lli'
'list_'
'lichkeit_'
'let_'
'len'
'land'
'kt_'
'kla'
'keiten_'
'isi'
'ise_'
'ionen_'
'incomes_'
'ic'
'ia'
'gek'
'fuel_'
'fell_'
'fe_'
'falling_'
'facing_'
'fa'
'extent_'
'ew'
'essential_'
'erklärt_'
'ensi'
'enorme_'
'enn'
'enen_'
'ehr'
'efficient_'
'economics_'
'dürfte_'
'dringend_'
'don_'
'directly_'
'dera'
'cutting_'
'crucial_'
'contrast_'
'ces_'
'ce'
'cases_'
'calls_'
'by'
'broader_'
'bera'
'bb'
'ausge'
'ast'
'assistance_'
'appropriate_'
'anstatt_'
'angen_'
'alternative_'
'alliance_'
'all'
'agen_'
'af'
'achieved_'
'Zudem_'
'Ye'
'Wettbewerbsfähigkeit_'
'Warum_'
'Waffen_'
'Verfügung_'
'Vereinten_'
'Umwelt'
'Terrorismus_'
'Tag_'
'Since_'
'Sektor_'
'Scha'
'Sanktionen_'
'Reform'
'Rahmen_'
'Paris_'
'Pacific_'
'Nobel_'
'Monaten_'
'Meanwhile_'
'Massen'
'March_'
'M_'
'Kredite_'
'Kern'
'Kar'
'Iraqi_'
'Initiative_'
'II_'
'Hinblick_'
'Grund'
'Fähigkeit_'
'Fo'
'Erstens_'
'Erfahrung_'
'Einzel'
'Despite_'
'Darüber_'
'Dabei_'
'Che'
'Beziehung_'
'Bel'
'Beitrag_'
'Banken'
'Aufstieg_'
'Atom'
'As'
'Anreize_'
'Ank'
'Agenda_'
'я'
'zudem_'
'zero_'
'win_'
'wer'
'wage_'
'victims_'
'verlieren_'
'verfügen_'
'va'
'ut_'
'ut'
'upon_'
'unt'
'unit'
'ultimately_'
'tzt_'
'tz_'
'ts'
'trillion_'
'trading_'
'tis'
'therefore_'
'thereby_'
'tat'
'surplus_'
'stro'
'stop_'
'stet'
'ster_'
'stellung_'
'sp'
'son_'
'solutions_'
'sion_'
'seriously_'
'science_'
'schützen_'
'schwierig_'
'scheinen_'
'saying_'
's'
'rsch'
'rm'
'ries_'
'respect_'
'res'
'related_'
'record_'
'ready_'
'reached_'
'reach_'
'quite_'
'project_'
'profitieren_'
'produce_'
'pre_'
'port'
'politisch_'
'police_'
'points_'
'pem'
'ped_'
'paar_'
'oo'
'oll'
'offenen_'
'od'
'oc'
'nötig_'
'nts_'
'nti'
'ner'
'name_'
'mp'
'movement_'
'mer'
'medical_'
'mb'
'ländern_'
'lung_'
'losses_'
'lly_'
'lf'
'lesson_'
'leben_'
'leave_'
'lar'
'komp'
'kom'
'j'
'ischer_'
'industries_'
'independence_'
'inc'
'igt_'
'ier_'
'icher'
'household_'
'hauptsächlich_'
'han_'
'gung_'
'guarantee_'
'going_'
'gleichen_'
'gezwungen_'
'get'
'gesamten_'
'ges'
'gener'
'genannten_'
'gehören_'
'game_'
'führung_'
'fri'
'französischen_'
'finanzielle_'
'ff'
'ez'
'establish_'
'essentially_'
'esi'
'erfolgreich_'
'ere_'
'era_'
'enz'
'ents_'
'eng'
'electricity_'
'ele'
'eit'
'eigene_'
'down'
'diplomacy_'
'difference_'
'diejenigen_'
'den'
'demi'
'currently_'
'currencies_'
'creating_'
'cor'
'continued_'
'consumer_'
'considerable_'
'comprehensive_'
'choice_'
'chief_'
'cher'
'changed_'
'capitalism_'
'cancer_'
'cal'
'brought_'
'britischen_'
'bra'
'borders_'
'blo'
'bis'
'bilden_'
'bevor_'
'besten_'
'bef'
'becoming_'
'bea'
'aten_'
'asi_'
'armed_'
'argument_'
'argued_'
'ard'
'answer_'
'alt'
'ali'
'air_'
'ain'
'aging_'
'aff'
'adalah_'
'activity_'
'activities_'
'abhängig_'
'Zinssätze_'
'Ziel'
'Zeitpunkt_'
'Würde_'
'Währungsfonds_'
'Wettbewerb_'
'Versuch_'
'Verb'
'Unternehmens'
'U_'
'Te'
'Studien_'
'Status_'
'Staates_'
'Security_'
'Ri'
'Pu'
'Prä'
'Preise_'
'Portugal_'
'Pan'
'Os'
'Not_'
'Nach'
'Männer_'
'Mubarak_'
'Modell_'
'Mitte_'
'Mehr'
'Libanon_'
'Lebanon_'
'Klimawandel_'
'Kan'
'Is'
'Ireland_'
'Ins'
'Industrie'
'Ideen_'
'House_'
'Gruppe_'
'Gl'
'Geschäfts'
'Gegensatz_'
'Förderung_'
'Fällen_'
'Fu'
'Ergebnisse_'
'El'
'Ei'
'Dennoch_'
'Ba'
'Aufgabe_'
'Arbeitskräfte_'
'Antwort_'
'Ans'
'Amt_'
':_'
'500_'
'4'
'2002_'
'20'
'197'
'195'
'.  _'
'' _'
'– _'
'у_'
'й'
'überall_'
'ändern_'
'zweiten_'
'zentrale_'
'whatever_'
'wachsende_'
'völlig_'
'voll_'
'vo'
'views_'
'vic'
'verstärken_'
'verstehen_'
'verb'
'ven_'
'usually_'
'uri'
'untersch'
'unf'
'umfassende_'
'ture_'
'tt_'
'tor'
'ting'
'ten'
'tel'
'technological_'
'ta_'
'supported_'
'succeed_'
'stu'
'sti'
'stable_'
'sli'
'sho'
'sal'
'safety_'
'ros'
'road_'
'rid'
'resulting_'
'rer_'
'ren'
'ref'
'recognized_'
'rec'
'rea'
'qua'
'ps_'
'prospects_'
'proposal_'
'pra'
'pert'
'peoples_'
'partners_'
'organizations_'
'ord'
'oni'
'objectives_'
'o'
'nte'
'normal_'
'ni'
'neues_'
'moment_'
'mir_'
'ministers_'
'maßnahmen_'
'markt'
'mal'
'länder_'
'lte'
'loss_'
'ln_'
'lla'
'lis'
'lin'
'limits_'
'ler'
'legitimacy_'
'legislation_'
'kurzem_'
'kle'
'ken'
'kar'
'japanische_'
'izing_'
'ives_'
'internal_'
'implications_'
'ile'
'ik'
'identity_'
'ich'
'ians_'
'höheren_'
'highly_'
'helped_'
'hed_'
'gs'
'größeren_'
'groß_'
'grow_'
'greatest_'
'giving_'
'gewi'
'gewalt'
'getan_'
'gen'
'gemeinsamen_'
'gef'
'geb'
'gap_'
'free'
'folgen_'
'fil'
'fair_'
'faced_'
'expectations_'
'ex'
'eventually_'
'establishment_'
'erte_'
'eri'
'erh'
'equivalent_'
'entscheidender_'
'ellen_'
'ela'
'due_'
'double_'
'diseases_'
'disa'
'demands_'
'default_'
'dd'
'dar_'
'damage_'
'cu'
'ction_'
'controls_'
'contract'
'complete_'
'communities_'
'comm'
'cli'
'cla'
'chten_'
'changing_'
'candidates_'
'buy_'
'bubble_'
'brachte_'
'blu'
'bestehen_'
'bekannt_'
'base_'
'au_'
'att'
'arti'
'ari'
'anderer_'
'ander'
'ana'
'allowed_'
'alle'
'ala'
'aktuelle_'
'aim_'
'ai_'
'ai'
'according_'
'aben_'
'Zweifel_'
'Zusammen'
'Worten_'
'Wohlstand_'
'Widerstand_'
'Why_'
'Wandel_'
'Wahr'
'Verl'
'Verfassungs'
'Ver'
'Umsetzung_'
'Two_'
'Trotz_'
'Thus_'
'Technologien_'
'Tat_'
'Sy'
'Sub'
'Stra'
'Sowjetunion_'
'Sol'
'Sogar_'
'Schwellenländer_'
'Reihe_'
'Realität_'
'Privat'
'Pl'
'Perhaps_'
'Paul_'
'Partei'
'Parlament_'
'Palästinenser_'
'OECD_'
'Neu'
'Myanmar_'
'Mus'
'Monat_'
'Mitgliedsstaaten_'
'Mit'
'May_'
'Kultur_'
'Krankheiten_'
'Kraft_'
'Konferenz_'
'Kandidaten_'
'John_'
'Iranian_'
'Informationen_'
'Hä'
'Haushalte_'
'Har'
'Gr'
'Gen'
'Gegenteil_'
'Ga'
'From_'
'Folge_'
'Finanzs'
'Entwicklungsländer_'
'Energie_'
'Einige_'
'Eastern_'
'During_'
'Dan'
'Daher_'
'DC_'
'Copenhagen_'
'Chile_'
'Bio'
'Because_'
'Ausweitung_'
'Am'
'Abs'
'AIDS_'
'?'
'21_'
'1989_'
'. „_'
'!_'
' –, _'
'ң_'
'п_'
'н'
'ма'
'б'
'ält_'
'Ökonomien_'
'Ökonomie_'
'zwei'
'zo'
'zar'
'work'
'wieder'
'wichtiger_'
'wesentlich_'
'wan'
'virtually_'
'via'
'verein'
'unseren_'
'unser_'
'unity_'
'ul'
'uh'
'ug_'
'tz'
'turns_'
'tur'
'tsch'
'trying_'
'trust_'
'transfers_'
'traditionellen_'
'tf'
'tet_'
'tell'
'targets_'
'talks_'
'takes_'
'sä'
'sustained_'
'sus'
'steigern_'
'standing_'
'sst'
'somit_'
'sma'
'sla'
'skills_'
'ske'
'seeking_'
'schu'
'sar'
'rü'
'run'
'rig'
'rie'
'ric'
'rely_'
'regions_'
'regionalen_'
'refugee_'
'recht_'
'ratio_'
'rank'
'quantitative_'
'push_'
'provides_'
'promise_'
'programm_'
'product_'
'preise_'
'precisely_'
'ple'
'peri'
'pen'
'pe'
'para_'
'paid_'
'pa'
'ot_'
'ot'
'ost'
'ongoing_'
'olitik_'
'ol'
'ock'
'numbers_'
'nieder'
'nge'
'ngan_'
'nder_'
'nan'
'nahe_'
'modest_'
'measure_'
'mati'
'manchmal_'
'lot_'
'll'
'lies_'
'letzte_'
'langsam_'
'langfristige_'
'kraft_'
'kleinen_'
'killed_'
'ker_'
'ker'
'jährlich_'
'jeden_'
'jedem_'
'ization_'
'ive'
'ium_'
'ists_'
'ir'
'ip'
'ional_'
'insgesamt_'
'impossible_'
'impa'
'immigration_'
'il'
'ical_'
'ib'
'ial_'
'hä'
'holding_'
'hmen_'
'highest_'
'hem'
'head_'
'größer_'
'gewinnen_'
'gering_'
'ganzen_'
'frühen_'
'französische_'
'frag'
'families_'
'ev'
'eti'
'ethnic_'
'est'
'erz'
'ert'
'ersch'
'ermöglicht_'
'er'
'equally_'
'eo'
'entwickelten_'
'entw'
'entscheiden_'
'engage_'
'ena'
'ell_'
'electoral_'
'einzelnen_'
'eingeführt_'
'eh'
'egal_'
'effectively_'
'earlier_'
'dt'
'dra'
'doubt_'
'dollars_'
'dit'
'desire_'
'des'
'derart_'
'depends_'
'denken_'
'deflation_'
'defi'
'deeply_'
'danger_'
'dagegen_'
'core_'
'concern_'
'competition_'
'coalition_'
'claims_'
'cken_'
'cit'
'book_'
'biggest_'
'beruht_'
'ber_'
'belief_'
'battle_'
'baru_'
'barriers_'
'ausgesetzt_'
'ausgaben_'
'ask_'
'area_'
'appear_'
'anz'
'ande'
'allies_'
'ale_'
'ah'
'ace'
'Zweitens_'
'Wladimir_'
'Wi'
'Wasser'
'War'
'Vorteil_'
'Vo'
'Verlust_'
'University_'
'Unge'
'Unfortunately_'
'Umfang_'
'Teil'
'Taiwan_'
'Stimmen_'
'Ste'
'Spr'
'Spe'
'Sinn_'
'Sicht_'
'Schule_'
'Schicksal_'
'Sam'
'Saddam_'
'Regionen_'
'Regimes_'
'Pen'
'Out'
'Ort_'
'Ordnung_'
'Ministerpräsident_'
'Min'
'Maß_'
'Lebensmittel'
'Laut_'
'Kur'
'Krankheit_'
'Konsum_'
'Kim_'
'Keynes_'
'Kapital_'
'January_'
'Ist_'
'Indiens_'
'Hälfte_'
'Hin'
'Haltung_'
'Gesetze_'
'Freiheit_'
'Fortschritte_'
'Forschungs'
'Finanzierung_'
'End'
'Emissionen_'
'Ebenso_'
'December_'
'David_'
'Chávez_'
'Bew'
'Bet'
'Bau'
'Ausdruck_'
'Ausbildung_'
'Anlage'
'Angela_'
'Abkommen_'
'Abe_'
'AM'
'75_'
'35_'
'200_'
'0'
'.'
')'
'"_'
'  _'
'қ'
'é_'
'äh'
'ächt'
'ßt_'
'Überwachung_'
'Übersch'
'zen'
'xt'
'wiederum_'
'went_'
'weiterer_'
'weiter'
'week_'
'wea'
'vors'
'verwendet_'
'verpflichtet_'
'verd'
'verbunden_'
'untergraben_'
'uncertainty_'
'un_'
'ums_'
'tter'
'tten_'
'tte_'
'training_'
'tools_'
'tn'
'thousands_'
'tho'
'teuer_'
'terrorist_'
'television_'
'suggest_'
'suffering_'
'suffered_'
'su'
'style_'
'sterben_'
'sse'
'solve_'
'soft_'
'societies_'
'sing_'
'sil'
'shows_'
'shocks_'
'sge'
'seien_'
'see'
'sec'
'sea'
'scope_'
'sco'
'school_'
'savings_'
'rz'
'running_'
'rten_'
'rra'
'rme'
'ri_'
'rest'
'rese'
'relief_'
'reg'
'reduction_'
'rechte_'
'reb'
'rau'
'raten_'
'rat'
'rasch_'
'raised_'
'quo_'
'que_'
'que'
'prä'
'providing_'
'principles_'
'pol'
'pie'
'perubahan_'
'person'
'payments_'
'oren_'
'ordinary_'
'order'
'opinion_'
'ologi'
'ola'
'occur_'
'nächste_'
'nung_'
'nom'
'möglichen_'
'muslimischen_'
'mpa'
'moving_'
'momentan_'
'ml'
'meta'
'met'
'menye'
'menschlichen_'
'menjadi_'
'mend'
'meinen_'
'mat'
'mar'
'mandate_'
'limit_'
'lich'
'lic'
'lem'
'leg'
'ld_'
'laut_'
'ku'
'kita_'
'kin_'
'kh'
'justice_'
'jeweiligen_'
'jener_'
'ja_'
'iven_'
'ition_'
'iten_'
'invest_'
'inis'
'inander_'
'immediate_'
'icht_'
'iat'
'humanity_'
'hren_'
'hera'
'hel'
'hei'
'har'
'hands_'
'han'
'grundlegende_'
'gold_'
'gn'
'gezeigt_'
'generally_'
'fung_'
'fund_'
'fti'
'ft'
'forward_'
'followed_'
'flows_'
'fest_'
'faster_'
'farmers_'
'fan'
'erwiesen_'
'erten_'
'ers'
'eren'
'enormen_'
'ende'
'end'
'enable_'
'elect'
'einges'
'effiziente'
'efficiency_'
'economist_'
'easily_'
'drugs_'
'driven_'
'drive_'
'drei'
'dre'
'discre'
'disc'
'direkt_'
'din'
'dig'
'dienst'
'dic'
'di'
'demokratische_'
'democracies_'
'demo'
'degree_'
'cur'
'creditors_'
'counter_'
'conce'
'compo'
'complex_'
'coal_'
'cin'
'cies_'
'chu'
'choose_'
'choices_'
'child_'
'center_'
'cast'
'bru'
'bringt_'
'ble'
'bisa_'
'bewältigen_'
'bewusst_'
'bestehenden_'
'bessere_'
'besar_'
'ben'
'believed_'
'bel'
'beinahe_'
'beigetragen_'
'beg'
'bed'
'aut'
'auss'
'ausgew'
'ator'
'ative_'
'asiatischen_'
'art_'
'ars'
'applied_'
'appeal_'
'amm'
'ami'
'ambi'
'ama'
'alte_'
'allgemein_'
'aks'
'air'
'ain_'
'ahead_'
'agree_'
'affected_'
'adjustment_'
'additional_'
'added_'
'absch'
'\\_'
'Zi'
'Za'
'Y'
'Wissenschaft_'
'Wei'
'Washington_'
'Wachstums_'
'Wachstums'
'Vielleicht_'
'Versch'
'Vergleich_'
'Verfassung_'
'Verbrechen_'
'Verbraucher_'
'Ur'
'Unterschied_'
'Unter_'
'Tri'
'Terroristen_'
'Stadt_'
'Sorge_'
'Similarly_'
'Sieg_'
'Sein_'
'Republik_'
'Republicans_'
'Republic_'
'Renten'
'Quelle_'
'Q'
'Programme_'
'Premierminister_'
'Position_'
'Polen_'
'Platz_'
'Organisation_'
'Ob'
'Nigeria_'
'Märkten_'
'Mos'
'Methode_'
'Lockerung_'
'Le_'
'Kre'
'Konjunktur'
'Kong_'
'Kollegen_'
'Kas'
'Jo'
'Jean_'
'J'
'Ir'
'Innovation_'
'Inflations'
'Inf'
'Hong_'
'Hoffnung_'
'He'
'Handelss'
'Handels_'
'Gründe_'
'Gesundheit_'
'Gespräche_'
'Fortschritt_'
'Fonds_'
'Flüchtlinge_'
'Experten_'
'Erfahrungen_'
'Entscheidungsträger_'
'England_'
'Einsch'
'Den'
'Demokratien_'
'Del'
'Defizit'
'Dazu_'
'Cold_'
'Chancen_'
'Cha'
'Besch'
'Bar'
'Bank'
'Außen'
'Assad_'
'Armee_'
'Arabia_'
'Ange'
'Amtszeit_'
'Aktivitäten_'
'Akteure_'
'Ad'
'45_'
'2030_'
'1998_'
'1991_'
') – _'
' ,,_'
'ны'
'ни'
'ды_'
'д'
'ü'
'änger'
'änder'
'ält'
'ähr'
'äg'
'ße_'
'zz'
'zusätzliche_'
'zurückzu'
'zurückge'
'zul'
'zin'
'zahl'
'za'
'wohl'
'wirtschaftlich_'
'wie'
'widers'
'wichtigen_'
'was'
'wars_'
'warning_'
'ward_'
'wanted_'
'wa_'
'vorn'
'versuchen_'
'vers'
'verg'
'verantwortlich_'
'vast_'
'var'
'ute'
'unre'
'unmöglich_'
'universal_'
'ung'
'unc'
'una'
'umgesetzt_'
'tut_'
'troops_'
'tried_'
'treiben_'
'transform'
'trans'
'tion'
'throughout_'
'threatened_'
'thinking_'
'tera'
'tend_'
'tap'
'tain'
'table_'
'sts_'
'strength_'
'stem'
'started_'
'staatlicher_'
'spr'
'space_'
'sources_'
'sieht_'
'sharp_'
'sharing_'
'sh'
'sechs_'
'schl'
'scha'
'sca'
'sat'
'rum'
'rti'
'ris'
'revolutionary_'
'returns_'
'retten_'
'responsible_'
'requirements_'
'required_'
'relevant_'
'rein_'
'regard_'
'referendum_'
'reduzieren_'
'rch'
'ran'
'putting_'
'pursue_'
'pur'
'punkt_'
'pt'
'ps'
'proved_'
'prot'
'produktiv'
'preis'
'prakti'
'politically_'
'personal_'
'parliament_'
'overcome_'
'ously_'
'organization_'
'options_'
'ong'
'offiziellen_'
'offen_'
'obvious_'
'notably_'
'normalerweise_'
'nn_'
'nisse_'
'nimmt_'
'ni_'
'neu'
'ndig'
'multilateral_'
'mostly_'
'mme'
'minority_'
'militärischen_'
'met_'
'merika'
'mereka_'
'menschliche'
'men'
'memper'
'meeting_'
'mark_'
'lte_'
'log'
'lig'
'leistungen_'
'leaving_'
'learned_'
'leads_'
'lau'
'language_'
'langfristigen_'
'langfristig_'
'lang'
'lan_'
'konfrontiert_'
'kl'
'kesehatan_'
'ked_'
'kaufen_'
'kat'
'kan'
'join_'
'japanischen_'
'islamischen_'
'irre'
'involved_'
'internationaler_'
'institution_'
'instability_'
'ino'
'initiatives_'
'inh'
'indischen_'
'improvement_'
'improved_'
'imposed_'
'imi'
'im'
'ill_'
'ila'
'iger_'
'ically_'
'ible_'
'humanitarian_'
'hier_'
'heraus'
'handels'
'griechischen_'
'goes_'
'gleich_'
'gest'
'gesp'
'gesamte_'
'gekommen_'
'gains_'
'funktionieren_'
'fte'
'freien_'
'freie_'
'follow_'
'focused_'
'flo'
'fla'
'finanziert_'
'fest'
'fee'
'federal_'
'favor'
'expect_'
'expe'
'erweisen_'
'erl'
'equity_'
'entstehen_'
'entschlossen_'
'entirely_'
'enterprises_'
'enter'
'ensuring_'
'enge'
'ender_'
'emb'
'elite_'
'eli'
'einl'
'einander_'
'eigen'
'easier_'
'dist'
'dil'
'differences_'
'dam'
'crime_'
'cra'
'coo'
'conventional_'
'contrary_'
'continent_'
'constitution_'
'consider_'
'consensus_'
'comp'
'commodity_'
'closer_'
'ckt_'
'circumstances_'
'cing_'
'chte_'
'cho'
'chen'
'char'
'cer'
'ced_'
'but'
'bul'
'bre'
'bran'
'border_'
'bli'
'bin'
'bez'
'betr'
'bers'
'bei'
'begann_'
'becomes_'
'bau_'
'backed_'
'außerhalb_'
'außer_'
'aufzubauen_'
'auf'
'au'
'attempt_'
'atte'
'arkt'
'argumentieren_'
'anyone_'
'ante'
'ang'
'amp'
'although_'
'allgemeine_'
'aka'
'ages_'
'afford_'
'ach'
'accept_'
'Zug'
'Zo'
'Zeit'
'Wä'
'Werk'
'Wege_'
'We'
'Wasser_'
'Waren_'
'Wahrheit_'
'Vor'
'Von_'
'Vi'
'Veränderung_'
'Verm'
'Verfahren_'
'V_'
'Universitäten_'
'Treaty_'
'Trans'
'Though_'
'Th'
'Stärke_'
'Städte_'
'Straf'
'Statt_'
'Standards_'
'Staatsanleihen_'
'Spiel_'
'Spannungen_'
'Sonder'
'Serbia_'
'San'
'Ren'
'Qua'
'Projekte_'
'Produktions'
'Post'
'Policy_'
'Patienten_'
'Ol'
'Nutzen_'
'Natur'
'Mor'
'Mon'
'Mitgliedschaft_'
'Migranten_'
'Meinungs'
'Medien_'
'Luft'
'Libya_'
'Leistungen_'
'Lang'
'Konsum'
'Jahrzehnte_'
'Israels_'
'Indian_'
'Imm'
'IC'
'Hoch'
'Hezbollah_'
'Hei'
'Harvard_'
'Hand_'
'Gründen_'
'Gra'
'Google_'
'Gesetz_'
'Fra'
'Forschung_'
'Finanzmärkte_'
'Far'
'Falle_'
'Faktoren_'
'Erl'
'En'
'Einklang_'
'Dinge_'
'Dieses_'
'Democracy_'
'Damit_'
'Court_'
'Comp'
'Co'
'Climate_'
'Bundes'
'Bis_'
'Bevölkerungs'
'Beide_'
'Behandlung_'
'BR'
'Ausb'
'Argentinien_'
'Anleger_'
'Anb'
'Aktien'
'ASEAN_'
'400_'
'2020_'
'1999_'
'196'
'1945_'
'. &#_'
'” (_'
'ы_'
'ме'
'е_'
'öffentlicher_'
'öffentlich_'
'äußerst_'
'äum'
'ändig'
'äm'
'zufolge_'
'zte'
'zins'
'ziel'
'zess'
'yo'
'wählen_'
'wrote_'
'write_'
'worth_'
'worst_'
'wer_'
'weisen_'
'weeks_'
'vulnerable_'
'vorzu'
'vorher'
'vol'
'vil'
'vieler_'
'vertr'
'versucht_'
'verloren_'
'verkaufen_'
'verha'
'verfügt_'
'verfolgt_'
'vera'
'varia'
'vac'
'uste'
'urs'
'unl'
'ungsm'
'uner'
'undermine_'
'unden'
'unable_'
'ugh'
'uer'
'ua'
'tätig'
'tze'
'truly_'
'trau'
'trag'
'trade'
'told_'
'tional'
'til'
'tic_'
'threats_'
'thr'
'terb'
'temporary_'
'teilen_'
'task_'
'tak'
'sustainability_'
'survive_'
'subsidies_'
'ständige'
'stun'
'strengthening_'
'strategies_'
'stoff'
'stage_'
'sses_'
'sse_'
'spend_'
'specific_'
'sound_'
'sort_'
'someone_'
'sm'
'sions_'
'sink'
'sierung_'
'sha'
'seven_'
'series_'
'seperti_'
'sekarang_'
'secular_'
'schließen_'
'says_'
'sama_'
'rweise_'
'rus'
'rp'
'rot'
'rit'
'rhetoric_'
'restore_'
'rem'
'religion_'
'rejected_'
'regimes_'
'reflect_'
'refer'
'ree'
'reco'
'reagieren_'
'rde'
'rc'
'rasche'
'rac'
'r'
'pt_'
'prospect_'
'pros'
'products_'
'prefer'
'ppe'
'played_'
'plants_'
'pit'
'pin'
'person_'
'pers'
'pass'
'partner_'
'participation_'
'pak'
'oti'
'ort'
'orm'
'org'
'ommen_'
'oleh_'
'ol_'
'offizielle_'
'oa'
'ny_'
'nit'
'nes_'
'neg'
'ncy_'
'nch'
'nb'
'nachhaltige_'
'nachdem_'
'multi_'
'mos'
'mittel_'
'mini'
'micro'
'mess'
'mental_'
'menc'
'mema'
'medi'
'mechanism_'
'mea'
'mbi'
'mba'
'manche_'
'mainly_'
'mag'
'lus'
'losing_'
'lib'
'letzter_'
'lessons_'
'leicht_'
'legt_'
'learn_'
'ld'
'latest_'
'lan'
'kul'
'kt'
'kre'
'konf'
'kel'
'kehren_'
'ject'
'iva'
'itu'
'itte'
'ities_'
'iss'
'innovations_'
'inflows_'
'inevitable_'
'industrie_'
'includes_'
'implies_'
'immediately_'
'ign'
'ici'
'ichten_'
'ica'
'hält_'
'hur'
'hr_'
'hot'
'hit_'
'hinder'
'hen'
'heavily_'
'has'
'hardly_'
'happen_'
'haft_'
'größtenteils_'
'greifen_'
'governmental_'
'gla'
'gewe'
'gesamt'
'genetic_'
'gele'
'gehört_'
'ge'
'gat'
'gal'
'führten_'
'führenden_'
'fueled_'
'frei'
'form'
'forecast'
'flow_'
'finanziellen_'
'finally_'
'fin'
'figures_'
'fighting_'
'fer'
'fen'
'fears_'
'favor_'
'failures_'
'experts_'
'expenditures_'
'exit_'
'excessive_'
'excess_'
'establishing_'
'erzielen_'
'erwarten_'
'ernste'
'erklärte_'
'erhebliche_'
'ergreifen_'
'entwickelte_'
'entf'
'emerged_'
'em'
'elt_'
'eln_'
'edly_'
'dy'
'dung_'
'drop_'
'dro'
'dramatic_'
'doesn_'
'dle'
'divided_'
'dite'
'discuss'
'dim'
'dialogue_'
'developments_'
'deutsche_'
'deutliche'
'deut'
'determine_'
'depend_'
'demonstrated_'
'del'
'db'
'darum_'
'darstellen_'
'daraus_'
'dan'
'ct'
'cre'
'corporate_'
'conve'
'conflicts_'
'comple'
'company_'
'closed_'
'clo'
'chances_'
'carry_'
'capable_'
'candidate_'
'budgets_'
'broke'
'breite'
'bor'
'bond_'
'blood_'
'bi'
'bewegen_'
'betra'
'beste_'
'besch'
'bereich_'
'bene'
'begrenzt_'
'bedeuten_'
'barkeit_'
'bagi_'
'ausreichend_'
'ausgedrückt_'
'assen_'
'argu'
'arbeitet_'
'appeared_'
'anste'
'ani'
'angeh'
'anf'
'ane'
'amp_'
'akzeptieren_'
'agriculture_'
'agreed_'
'adjust'
'ade'
'ada_'
'abwe'
'Zweiten_'
'Zins'
'Ya'
'Wohn'
'Wohl'
'Woche_'
'Wissens'
'Will_'
'Wer_'
'Weltkrieg_'
'Wal'
'WASHINGTON_'
'Vietnam_'
'Versprechen_'
'Verle'
'Verhältnis_'
'Verhalten_'
'Verbindung_'
'Verbesserung_'
'Umständen_'
'Ums'
'Umfeld_'
'Truppen_'
'Those_'
'Themen_'
'Subventionen_'
'Steigerung_'
'Staats_'
'Spar'
'Sen'
'Schwellenländern_'
'Schul'
'Schritte_'
'SE'
'SA'
'Risiko'
'Red'
'Rahmen'
'Praxis_'
'Pla'
'Ph'
'Palestinians_'
'Orte'
'Organisationen_'
'Opposition_'
'Op'
'Notenbank_'
'Nachdem_'
'NG'
'My'
'Menschenrechts'
'Mah'
'Lösungen_'
'Löhne_'
'Linie_'
'Legitimität_'
'Kurz'
'Krisen'
'Kriegs'
'Kri'
'Krebs'
'Konsens_'
'June_'
'Iran'
'Institute_'
'Industrie_'
'Immobilien'
'Haushaltsdefizit'
'Hal'
'Größe_'
'Grunds'
'Gi'
'Gesch'
'Geburt'
'Front_'
'Fre'
'Fort'
'Finanzsystem_'
'Finally_'
'Fehle'
'Faktor_'
'Export'
'Erd'
'Engagement_'
'Empf'
'ES'
'Donald_'
'Die'
'Der'
'Den_'
'Chi'
'CD'
'Buch'
'Billionen_'
'Bilanz'
'Bewegung_'
'Bekämpfung_'
'Bef'
'Bed'
'Ban'
'August_'
'Aufgrund_'
'Aufbau_'
'Au'
'Arbeiter_'
'Annahme_'
'Anleihen_'
'Anf'
'All'
'1990er_'
'198'
'1979_'
'193'
'192'
'17_'
'1'
' ._'
'”, _'
'”'
'ра'
'но'
'ла'
'ка'
'и_'
'да'
'üt'
'ünde'
'ün'
'ück'
'übliche'
'überw'
'übersch'
'übers'
'ös'
'ön'
'äumen_'
'ähnlich_'
'á'
'Überdies_'
'zust'
'zusammen'
'zugrunde_'
'zentr'
'zeit'
'ze'
'yi'
'wächst_'
'ws_'
'wirtschaft_'
'widen'
'westlichen_'
'wenige_'
'welche'
'weight_'
'weifel'
'wechsel'
'wasser'
'vollständig_'
'visit'
'ving_'
'verw'
'vernünftige'
'verk'
'vention'
'vel'
'various_'
'uti'
'uta'
'usi'
'use'
'usa'
'uren_'
'uran'
'unterschiedliche_'
'untern'
'unsustainable_'
'unless_'
'umzu'
'ufen_'
'u0027s_'
'tritt_'
'transport_'
'tom'
'tik_'
'tests_'
'ters_'
'terrorists_'
'tensions_'
'tem'
'tech_'
'taxpayers_'
'tar'
'talk_'
'sz'
'sum'
'suit'
'suc'
'subs'
'subject_'
'stä'
'stru'
'strategische_'
'steri'
'stabiliz'
'spro'
'sprach'
'speech_'
'sowjetischen_'
'sovereignty_'
'southern_'
'sor'
'son'
'sle'
'sk'
'sit'
'sicherzustellen_'
'sichern_'
'ship_'
'shi'
'shared_'
'settle'
'sell_'
'selbst'
'securities_'
'secure_'
'sbe'
'rä'
'rural_'
'ruling_'
'rte'
'round_'
'roughly_'
'room_'
'robust_'
'rik'
'rif'
'rieben_'
'richtige_'
'rge'
'represent_'
'repr'
'reme'
'remaining_'
'religiösen_'
'relati'
'reflected_'
'reas'
'rd'
'rb'
'rat_'
'rap'
'ral_'
'rai'
'rage_'
'rage'
'protect'
'productive_'
'priority_'
'previous_'
'pret'
'predicted_'
'practical_'
'potentially_'
'possibility_'
'poses_'
'plu'
'planet_'
'persist'
'permanent_'
'periphery_'
'pension_'
'pel'
'pattern_'
'painful_'
'pace_'
'ow_'
'otherwise_'
'origin'
'ordnung_'
'option_'
'opposite_'
'opponents_'
'onal_'
'ole'
'older_'
'oi'
'of'
'occup'
'oca'
'obstacles_'
'obligations_'
'ntion'
'nting_'
'niedrigen_'
'nicht'
'ngt_'
'nche'
'nationaler_'
'nachfrage_'
'mpf'
'mou'
'modernen_'
'mode'
'mine'
'mil'
'migration_'
'migrants_'
'merk'
'mer_'
'mention_'
'menta'
'menja'
'meng'
'meiner_'
'mehrere_'
'mehr'
'mber'
'maß'
'managing_'
'manage_'
'mam'
'loc'
'llo'
'liz'
'light_'
'ließen_'
'lie'
'les'
'legitimate_'
'lb'
'laws_'
'law'
'last'
'kürz'
'kur'
'kulturelle_'
'kosten'
'konzentriert_'
'konsum'
'konservative'
'ko_'
'kleine_'
'kes_'
'kek'
'kata'
'kal'
'juga_'
'iz'
'itu_'
'iranische_'
'inspir'
'innovative_'
'indi'
'impr'
'import_'
'implemented_'
'ily_'
'illus'
'iklim_'
'igkeiten_'
'iehen_'
'ieben_'
'ideological_'
'id'
'ichtig'
'ian'
'hrt_'
'host_'
'hor'
'hm'
'historic_'
'himself_'
'hier'
'hes'
'heits'
'heart_'
'head'
'handl'
'hand'
'größerer_'
'gk'
'ght'
'gewissen_'
'gestiegen_'
'geste'
'gesta'
'geschaffen_'
'geringere'
'geraten_'
'generations_'
'gegenwärtige_'
'gegenwärtig_'
'gegeben_'
'ganze_'
'gang_'
'gaben_'
'funktioniert_'
'funding_'
'fuels_'
'früheren_'
'fro'
'frei_'
'fre'
'fossil_'
'fonds_'
'fon'
'fiel'
'fern_'
'fate_'
'fat'
'fand_'
'factors_'
'expo'
'explained_'
'expand_'
'exp'
'exactly_'
'eth'
'erster_'
'erscheinen_'
'erne'
'erlaub'
'erinnern_'
'erfolg'
'ep'
'entscheidend_'
'enten_'
'enf'
'endlich_'
'ended_'
'enda'
'encouraging_'
'ema'
'else_'
'ekti'
'ekonomi_'
'einh'
'einfache_'
'eindeutig_'
'ehen'
'ees_'
'economically_'
'eck'
'easing_'
'dürfen_'
'durchge'
'draw_'
'disp'
'disi'
'discover'
'diff'
'die'
'dib'
'dev'
'dep'
'dak'
'cri'
'compl'
'compensation_'
'combined_'
'combination_'
'com'
'clearly_'
'cken'
'civilian_'
'chtig'
'chs'
'chr'
'chin'
'ches_'
'charge_'
'centers_'
'car'
'capita_'
'cap'
'broad_'
'bound_'
'books_'
'bias'
'bia'
'bew'
'bestimmte_'
'bestand_'
'beschränkt_'
'beschl'
'benötigen_'
'bemüh'
'bel_'
'begrenzte'
'beginnen_'
'begin_'
'bail'
'awa'
'aw'
'außen_'
'ausländischen_'
'ausl'
'ausgeb'
'auft'
'aufnehmen_'
'atz'
'assess'
'arr'
'army_'
'aris'
'argues_'
'arch'
'arbeit_'
'ara'
'annt'
'angeht_'
'ama_'
'allowing_'
'alen_'
'aggressive_'
'aga'
'ag_'
'afrikanischen_'
'achen_'
'ache'
'accompanied_'
'abe'
'Zentral'
'Währungsunion_'
'Währungen_'
'Wolf'
'Wirtschaftspolitik_'
'Willen_'
'Wall_'
'Vorschlag_'
'Vertrag_'
'Vermögenswerte_'
'Verk'
'Verg'
'Verd'
'Unterschiede_'
'Trotzdem_'
'Ton'
'Tha'
'Teile_'
'Tat'
'Süd'
'Systems_'
'Systeme_'
'Sweden_'
'Sun'
'Sudan_'
'Stärkung_'
'Städten_'
'Studie_'
'Stu'
'Strukturreformen_'
'Ster'
'Stelle_'
'Spitzen'
'Sorgen_'
'Sin'
'Sel'
'Schu'
'Schlüssel'
'Schluss_'
'Schaden_'
'Sache_'
'Russians_'
'Revolution'
'Republican_'
'Religion_'
'Regulierung_'
'Regierungschefs_'
'Reg'
'Rede_'
'Protest'
'Prop'
'Produkt'
'Politikern_'
'Politik'
'Phase_'
'Person_'
'Pers'
'Partner_'
'Partner'
'Parlaments'
'Para'
'Palestine_'
'PARIS_'
'Over_'
'Organization_'
'Nord'
'Nor_'
'Niveau_'
'Neue'
'Nazi_'
'Nationalismus_'
'Nah'
'Mobil'
'Milosevic_'
'Mer'
'Menge_'
'Med'
'Mario_'
'MI'
'MA'
'Lit'
'Leute_'
'Leistungs'
'Ky'
'Kranken'
'Kr'
'Kons'
'Kon'
'Klimawandels_'
'Kl'
'Kindern_'
'Kin'
'Katastrophe_'
'Jordanien_'
'Investition_'
'Instrumente_'
'Informations'
'Industrieländer_'
'Indi'
'Hussein_'
'Human_'
'However_'
'Hol'
'High_'
'Hel'
'Haus'
'Han'
'Gre'
'Gold'
'Ger'
'Gefühl_'
'Führungs'
'Frei'
'Frau_'
'Fran'
'Fr'
'For'
'Flüchtlings'
'Fahr'
'Eu'
'Ereignisse_'
'Em'
'Eins'
'Einkommens'
'Ebola_'
'Dezember_'
'Dep'
'Colombia_'
'Ce'
'CE'
'Buch_'
'Bri'
'Besuch_'
'Beschäftigungs'
'Befürworter_'
'Bea'
'BRICS_'
'Aussichten_'
'Aussch'
'Ausnahme_'
'Ausmaß_'
'At'
'Armen_'
'Arbeitslosen'
'Arbeitnehmer_'
'Anzeichen_'
'Angriff_'
'And'
'13_'
'.&_'
'.&#_'
'. “_'
'. '
','
'ө'
'ұ'
'те'
'та'
'ры'
'п'
'не'
'ле'
'во'
'üge'
'üchte'
'überrascht_'
'ölkerung'
'ökonomischen_'
'öhn'
'äs'
'ärf'
'ären_'
'äle_'
'Über_'
'zy'
'zuzu'
'zut'
'zusätzlich_'
'zusammenge'
'zur'
'zung_'
'zunehmende_'
'zu'
'zit'
'zige'
'zial'
'zes_'
'zer'
'zentral'
'zahlungen_'
'yc'
'wohn'
'witness'
'wis'
'wirksam_'
'wirken_'
'widespread_'
'wichtigste_'
'whereas_'
'werte'
'weit'
'warte'
'wait_'
'wachsenden_'
'wachsen_'
'volatility_'
'vital_'
'verurteilt_'
'verstärkt_'
'verstanden_'
'verst'
'verschärft_'
'verschiedene_'
'vermutlich_'
'verlangen_'
'verh'
'verfolgen_'
'vere'
'van'
'uss_'
'uses_'
'urgent_'
'upaya_'
'unseres_'
'unde'
'unacceptable_'
'ult'
'uld'
'ui'
'uh_'
'uge'
'type_'
'tum_'
'trotzdem_'
'treib'
'treat'
'tou'
'total'
'tori'
'ton'
'tig'
'tern_'
'terk'
'tering_'
'terhadap_'
'tellt_'
'tele'
'techno'
'technische'
'team_'
'tand'
'tal'
'tag_'
'sustain_'
'survival_'
'sufficient_'
'substantial_'
'substan'
'structure_'
'strategi'
'stic_'
'stic'
'steigenden_'
'standard_'
'stance_'
'stan'
'stabilize_'
'staaten_'
'spüren_'
'spu'
'spri'
'sprechen_'
'spa'
'sought_'
'sou'
'sn'
'smaller_'
'sische'
'significantly_'
'sier'
'sides_'
'shrink'
'shock_'
'shed_'
'sfähig'
'sever'
'setz'
'served_'
'senior_'
'sed_'
'sebagai_'
'scientific_'
'schw'
'schrieb_'
'scho'
'schnellen_'
'schafts'
'sam_'
'rv'
'rungs'
'rung_'
'rst'
'rooted_'
'root_'
'rog'
'rne'
'risk'
'richtig_'
'richte'
'ria'
'revenues_'
'retain'
'restrictions_'
'ressi'
'respond_'
'respect'
'resource_'
'rescue_'
'reports_'
'reported_'
'repl'
'regulations_'
'rede'
'recht'
'receive_'
'reaching_'
'rd_'
'raum_'
'ram'
'quote_'
'purchases_'
'pun_'
'provo'
'provision'
'prove_'
'property_'
'promote_'
'promised_'
'profound_'
'profits_'
'present_'
'presence_'
'predict_'
'pred'
'praktisch_'
'pping_'
'pped_'
'potenzielle_'
'populations_'
'plo'
'playing_'
'players_'
'pil'
'pick'
'physical_'
'pha'
'pfe'
'pet'
'pemerintah_'
'ped'
'peak_'
'patients_'
'path'
'ova'
'os'
'orts_'
'oro'
'orient'
'opp'
'operations_'
'operation_'
'operating_'
'om_'
'offens'
'odi'
'obs'
'nze'
'nz'
'nord'
'nominal_'
'nnen_'
'nk_'
'niedriger_'
'nfalls_'
'newspaper_'
'netz'
'neo'
'nei'
'nect'
'nds_'
'nding_'
'national'
'name'
'nachzu'
'müsste_'
'mü'
'mutual_'
'ms'
'movements_'
'moti'
'moderate'
'min_'
'militari'
'mid_'
'message_'
'mene'
'meine_'
'med_'
'meant_'
'margin'
'mant'
'mala'
'makers_'
'ländlichen_'
'ly'
'lv'
'losen_'
'loo'
'lo_'
'lm'
'ließ'
'lier'
'lid'
'lernen_'
'lec'
'leb'
'lawyers_'
'langen_'
'lac'
'kö'
'kurzfristig_'
'krieg_'
'konse'
'kommunistischen_'
'knows_'
'klare_'
'kept_'
'kem'
'jungen_'
'joint_'
'jenen_'
'jahr'
'iu'
'itts'
'ite_'
'itali'
'issued_'
'ish_'
'iron'
'iri'
'ipa'
'ions'
'iona'
'inv'
'interpret'
'internasional_'
'insist'
'inside_'
'infl'
'indung_'
'indig'
'inde'
'incentive_'
'impose_'
'imperial'
'iled_'
'ignored_'
'ight_'
'ified_'
'ider'
'identify_'
'höchst'
'hte'
'hro'
'house_'
'holds_'
'holders_'
'hie'
'herrscht_'
'heavy_'
'heat'
'hat'
'hara'
'handeln_'
'halt'
'halbe'
'habi'
'gue_'
'gten_'
'gt'
'grundlegenden_'
'grund'
'grown_'
'grounds_'
'grew_'
'greenhouse_'
'green_'
'gras'
'grafi'
'goals_'
'gesunde'
'gestalten_'
'gesetzt_'
'gesetz'
'gesehen_'
'gent'
'gender_'
'gend'
'gelegt_'
'gehalten_'
'gegenwärtigen_'
'gebunden_'
'geben'
'gar'
'fällt_'
'fu'
'fs'
'friends_'
'fran'
'formi'
'formal_'
'formal'
'flu'
'finanz'
'figure_'
'fied_'
'fall'
'fal'
'failing_'
'fahr'
'extremists_'
'extra_'
'ext'
'explain_'
'everywhere_'
'esti'
'ersta'
'erre'
'ernsthafte'
'erm'
'erie'
'erholen_'
'erfüllen_'
'entweder_'
'entscheidende_'
'ente'
'enst'
'enjoy_'
'engineer'
'engagement_'
'ener'
'ene_'
'emergency_'
'elte'
'eins'
'einr'
'eingesetzt_'
'eingel'
'eich'
'ehl'
'ega'
'effectiveness_'
'eer'
'educated_'
'earth'
'ds'
'druck_'
'dominant_'
'division_'
'disputes_'
'discussions_'
'disaster_'
'dip'
'dh'
'ders_'
'derer_'
'dennoch_'
'defeat_'
'darstellt_'
'darf_'
'ctions_'
'cti'
'cru'
'cover'
'cos'
'constitutional_'
'considered_'
'conservative_'
'conse'
'conf'
'cond'
'concerned_'
'concept_'
'compar'
'communism_'
'colo'
'collective_'
'collect'
'col'
'clean_'
'characterized_'
'chair'
'camp'
'buy'
'bs'
'bot'
'blind'
'bilateral_'
'bie'
'bezeichnet_'
'bezahlt_'
'bezahlen_'
'bevölkerung_'
'betrifft_'
'besitze'
'berk'
'benötigt_'
'beleb'
'beide'
'behaupten_'
'bedeut'
'bear_'
'bauen_'
'barely_'
'bankers_'
'bahn'
'bag'
'aware_'
'ava'
'außer'
'autoritäre'
'automati'
'auslös'
'ausländische_'
'ausb'
'aufrechtzuerhalten_'
'attempts_'
'ath'
'ates_'
'atas_'
'ata'
'assume_'
'arme_'
'arguments_'
'app'
'ap'
'anw'
'ano'
'ann'
'anl'
'ank_'
'ank'
'anhaltenden_'
'angewiesen_'
'anger_'
'anderswo_'
'anc'
'alter'
'allows_'
'alist'
'akti'
'ake'
'ak_'
'ak'
'aims_'
'agr'
'age'
'after'
'affen_'
'adverse_'
'activ'
'achtet_'
'ach_'
'acce'
'acc'
'absorb'
'abroad_'
'abgesch'
'abges'
'Zeitung'
'Wirkung_'
'Wichtig'
'White_'
'Vision_'
'Verteidigungs'
'Verschw'
'Verpflichtungen_'
'Verkehr'
'Verbreitung_'
'Verbindungen_'
'Une'
'Tunisia_'
'Transparenz_'
'Transfer'
'Thailand_'
'Tar'
'Südkorea_'
'Sturz_'
'Streit'
'Street_'
'Sti'
'Sp'
'Som'
'Sm'
'Sicher'
'Si'
'Shi'
'Sha'
'Science_'
'Schuld'
'Scho'
'Scheitern_'
'Sal'
'Rights_'
'Resolution_'
'Reich'
'Rei'
'Regional'
'Real'
'Rat_'
'Rat'
'Problemen_'
'Prinzipien_'
'Port'
'Poland_'
'Perspektive_'
'Pen_'
'Our_'
'On'
'October_'
'Nutz'
'Nur_'
'Nicht'
'Netherlands_'
'Nahrungsmittel'
'N_'
'Mü'
'Mut'
'Muslime_'
'Mont'
'Menschheit_'
'Mari'
'Mar'
'Malaysia_'
'Mala'
'Mai'
'Mad'
'Mac'
'Lohn'
'Liu_'
'Liberal'
'Leid'
'Lauf'
'L_'
'Kü'
'König'
'Kyoto_'
'Kritiker_'
'Kritik_'
'Kremlin_'
'Kongress_'
'Konflikt_'
'Kommunismus_'
'Kohle'
'Ki'
'Kalten_'
'Juni_'
'Jetzt_'
'Invest'
'Invasion_'
'Interventionen_'
'Institut'
'Initiativen_'
'Indonesien_'
'IF'
'IA'
'Hypotheken'
'Hollande_'
'Holl'
'Hintergrund_'
'Herrschaft_'
'Here_'
'Haushaltsp'
'Haushalt_'
'Hand'
'Großteil_'
'Großbritanniens_'
'Governments_'
'Gläubiger_'
'Gewinne_'
'Gesetz'
'Geo'
'Generation_'
'Gelde'
'Geh'
'Gefolge_'
'Gast'
'Fünf'
'Fähigkeiten_'
'Forum_'
'Fle'
'Fl'
'Fernseh'
'Feld'
'Fal'
'Erweiterung_'
'Erklärung_'
'Erhöhung_'
'Entscheidungs'
'Ele'
'Einnahmen_'
'Einigung_'
'Eindruck_'
'Einb'
'Eigen'
'Dynamik_'
'Dutch_'
'Dienst'
'Deutschlands_'
'Denn_'
'Demokraten_'
'Dass_'
'Cr'
'Consider_'
'Consensus_'
'Chef_'
'Chaos_'
'Can_'
'Brut'
'Briten_'
'Brit'
'Branchen_'
'Bra'
'Blair_'
'Bla'
'Bill_'
'Betracht'
'Bedenken_'
'Bauern_'
'Austria_'
'Atmosphäre_'
'Arabien_'
'April_'
'App'
'Anti'
'Anst'
'Another_'
'Anerkennung_'
'Anders_'
'Afrikas_'
'Abwe'
'AN'
'?”_'
';&#_'
'90_'
'65_'
'1997_'
'1970_'
'1930_'
'191'
'17'
'150_'
'00'
'.  _'
'-, _'
''' _'
' ``_'
' -_'
'�'
'“ – _'
'ә'
'ғ'
'ір'
'я_'
'ті'
'са'
'нд'
'на'
'ке'
'жа'
'ен'
'ге'
'ар'
'üsse_'
'ürd'
'ühren_'
'überzeugend'
'überzeugen_'
'übertr'
'überraschen'
'ötig'
'ökologische'
'äng'
'ähnliche'
'äge_'
'à_'
'Übergang_'
'Ärzte_'
'Ära_'
'zusammenbr'
'zun'
'zugleich_'
'zuges'
'zug_'
'zt_'
'zogen_'
'ziert'
'ziele_'
'zei'
'ysteme_'
'yr'
'yields_'
'ye'
'wä'
'writ'
'works_'
'wn_'
'wild'
'wenden_'
'weiß_'
'weiten_'
'wed_'
'wed'
'weaker_'
'warrant'
'warn'
'wahrscheinliche'
'wahr'
'vulnerabilit'
'voting_'
'vorhers'
'vorher_'
'vorgesch'
'vorge'
'voraussichtlich'
'voran_'
'voran'
'veröffentlicht_'
'verwa'
'verschl'
'vermi'
'verme'
'veri'
'vergi'
'verf'
'verbinde'
'veran'
'vat'
'variety_'
'ution'
'uten_'
'usion_'
'users_'
'useful_'
'ura'
'upt'
'unprecedented_'
'unpr'
'unn'
'unmittelbar_'
'universities_'
'unique_'
'ungsf'
'unfair'
'underway_'
'underlying_'
'uncon'
'uncertain'
'unbedingt_'
'umzusetzen_'
'uldig'
'ukan_'
'uf_'
'ue_'
'ual_'
'ual'
'tü'
'tätigen_'
'types_'
'trouble_'
'trigger'
'treated_'
'tradition_'
'trac'
'tough_'
'tm'
'tle'
'tiv'
'titut'
'tike'
'tier'
'tiefe'
'tief_'
'thi'
'terror_'
'tene'
'tenden'
'tell_'
'teh'
'tation_'
'tail'
'tac'
'süd'
'system'
'swa'
'surviv'
'survey'
'supposed_'
'supplie'
'summer_'
'suggest'
'sudah_'
'stützen_'
'stü'
'strukture'
'strenge'
'stories_'
'stl'
'stie'
'steil'
'statt'
'station'
'stands_'
'stall'
'sst_'
'ssion_'
'spl'
'spiel'
'spi'
'spect'
'special_'
'south'
'sons_'
'solid'
'sol'
'sod'
'soci'
'slowdown_'
'slow'
'sis'
'sim'
'signed_'
'sign_'
'shown_'
'showed_'
'shortage'
'setzung_'
'setting_'
'set'
'sent'
'sens'
'seh'
'secur'
'scr'
'schätz'
'scenario'
'sb'
'saubere'
'sati'
'sah_'
'safer_'
'safe_'
'sab'
'rze'
'rui'
'rri'
'rr'
'ron'
'rom'
'rly_'
'rise'
'ris_'
'richtigen_'
'ric_'
'rhe'
'rf'
'revolution'
'revealed_'
'reveal'
'rev'
'restructuring_'
'repu'
'represents_'
'represented_'
'repa'
'rent'
'renminbi_'
'reinforce'
'regular'
'regel'
'reductions_'
'redi'
'rech'
'rebel'
'realen_'
'readin'
'rdin'
'rba'
'rational_'
'ration_'
'ratio'
'rangi'
'range_'
'rall'
'rak'
'raising_'
'raf'
'radical'
'rad'
'rable_'
'q'
'purpose_'
'published_'
'prozess_'
'protectionis'
'prosecut'
'proportion_'
'propo'
'produktion_'
'prin'
'prevailing_'
'press_'
'preci'
'preced'
'positiv_'
'positions_'
'posed_'
'por'
'popul'
'polls_'
'poll'
'play'
'plant_'
'placed_'
'pl'
'piele'
'pi_'
'phone'
'pes'
'persönliche'
'perspective_'
'persistent_'
'pere'
'perception'
'percentage_'
'peng'
'pene'
'pemba'
'pec'
'patri'
'passiert_'
'parliamentary_'
'pai'
'oy_'
'overt'
'overs'
'ov'
'ous'
'oten'
'ore_'
'opt'
'ong_'
'ond'
'ommt_'
'old'
'ohne'
'ogen'
'occurred_'
'nütz'
'nötigen_'
'nz_'
'nutz'
'nungs'
'notion_'
'not'
'non'
'nomin'
'nis'
'niedrig_'
'nic'
'ngun'
'ngs_'
'new'
'network_'
'nel_'
'neighbor'
'necessarily_'
'nea'
'ndone'
'natürliche'
'nas'
'nar'
'nal'
'nahm_'
'nachhaltig_'
'müssten_'
'märkte_'
'mä'
'myth'
'mpe'
'moralisch'
'monitor'
'moderate_'
'modell_'
'mittlerweile_'
'mittel'
'mission_'
'missi'
'militärischer_'
'milit'
'mente'
'mengu'
'mengak'
'menga'
'membu'
'mem'
'mein'
'medizinische'
'measured_'
'mbo'
'material_'
'mas'
'managed_'
'maintained_'
'low'
'looks_'
'lon'
'lohn'
'locker'
'lls_'
'llen'
'lled_'
'lit'
'link'
'linge'
'lim'
'likt'
'lige'
'liefer'
'lie_'
'lichkeiten_'
'liches_'
'liberale'
'leverage_'
'lev'
'leu'
'leidet_'
'lei'
'legitim'
'lea'
'laut'
'launched_'
'lauf_'
'lat'
'kurze'
'kti'
'kriege'
'krank'
'kos'
'korr'
'kn'
'kin'
'kill_'
'keits'
'keines'
'keiner_'
'keh'
'kebijakan_'
'keb'
'kandidat'
'judge'
'jahre'
'ita'
'isse'
'ire'
'io'
'introduc'
'intra'
'interven'
'interne'
'intensive_'
'intended_'
'inn'
'initiative_'
'initially_'
'ingen_'
'infi'
'ineffective_'
'individu'
'incomp'
'inadequate_'
'improving_'
'implementation_'
'immigrants_'
'imm'
'image_'
'illegale'
'ikan_'
'ignor'
'igen'
'ient_'
'ics_'
'ichtung_'
'icht'
'ichen_'
'ibu'
'ibi'
'hou'
'hoped_'
'hop'
'hnya_'
'historische_'
'hinter'
'hink'
'hilfe_'
'hide'
'here'
'heraus_'
'heil'
'hear'
'hart_'
'harm_'
'hard'
'happ'
'ham'
'halt_'
'gäbe_'
'gutes_'
'guten_'
'guard'
'grat'
'gmati'
'global'
'gge'
'getroffen_'
'gesellschaft'
'geschlossen_'
'geri'
'gere'
'geprägt'
'geo'
'genuine_'
'geld'
'gefa'
'gag'
'förder'
'fundamental'
'fulfill'
'ften_'
'freundliche'
'freu'
'frame'
'fra'
'founde'
'forms_'
'formation_'
'forest'
'forderte_'
'fordern_'
'foot'
'folio'
'fluc'
'fli'
'flexibility_'
'fit'
'firm_'
'firm'
'fire'
'findet_'
'financed_'
'fication_'
'fic'
'fertig'
'faire'
'facilitat'
'fach'
'experienced_'
'exists_'
'exception_'
'examples_'
'exa'
'everything_'
'europa'
'ets_'
'eten'
'estimated_'
'escape_'
'esa'
'erteil'
'erode'
'erin'
'erhöht_'
'erfordern_'
'ered_'
'entsprechend_'
'entschieden_'
'entscheidenden_'
'entscheid'
'entla'
'entin'
'enth'
'ensch'
'enrich'
'eni'
'enhance_'
'engaged_'
'eng_'
'endo'
'enabling_'
'emergence_'
'emerge_'
'embrace_'
'embar'
'ekt'
'eitet_'
'eist'
'einzig_'
'einiger_'
'einb'
'eilig'
'eil'
'eidung_'
'eid'
'ehemalige_'
'ee'
'eco'
'echen_'
'ean_'
'dämm'
'durchzusetzen_'
'durchgeführt_'
'durchaus_'
'droh'
'driving_'
'downturn_'
'dose'
'door'
'dne'
'diversity_'
'directed_'
'dictator'
'destruction_'
'destr'
'design_'
'dert'
'dent'
'deno'
'demanding_'
'defe'
'def'
'deepen'
'declining_'
'declared_'
'decided_'
'debates_'
'deb'
'davor_'
'danach_'
'cyclical_'
'cross_'
'critic'
'credibility_'
'creates_'
'corrupt_'
'cop'
'convergence_'
'contribute_'
'continuing_'
'constraints_'
'const'
'confrontation_'
'conducted_'
'concluded_'
'commitments_'
'co_'
'clu'
'cker'
'cked_'
'cite'
'cis'
'cie'
'chw'
'chtlich'
'chn'
'chel'
'chan'
'cen'
'causing_'
'ca_'
'bus'
'bureaucrac'
'bung'
'bull'
'bro'
'brauch'
'br'
'borne_'
'boosting_'
'boo'
'bol'
'bodies_'
'board_'
'block'
'bles_'
'billig'
'bill_'
'bilateralen_'
'bilanz'
'bewer'
'bestimmen_'
'bese'
'beschränk'
'beruh'
'bert'
'bela'
'behe'
'beha'
'beh'
'begun_'
'bege'
'befrei'
'beeinträchtig'
'beeinflussen_'
'bed_'
'beberapa_'
'batt'
'bat'
'bas'
'banyak_'
'bah'
'bad'
'avoided_'
'außerdem_'
'autonomy_'
'authoritarian_'
'auszus'
'ausgel'
'ausgegeben_'
'aufrecht'
'attraktive'
'attracti'
'ationen_'
'ational'
'asymmetri'
'assumption'
'arms_'
'arm'
'argumentiert_'
'ard_'
'approve'
'ap_'
'anzus'
'any'
'antly_'
'anni'
'anne'
'angka'
'anfä'
'aner'
'andern'
'ancient_'
'ances_'
'amounts_'
'amo'
'am'
'altung_'
'alt_'
'allgemeinen_'
'alität_'
'afghanische'
'advocat'
'adv'
'adopti'
'adequate_'
'addressing_'
'actions_'
'accepted_'
'accelerating_'
'abu'
'able'
'abl'
'aba'
'] _'
'Zweck'
'Zum_'
'Zuge_'
'Zuge'
'Zehn'
'Zahlungen_'
'Zahlen_'
'Yo'
'Xi_'
'Wunsch_'
'Wor'
'Wirklichkeit_'
'Wettbewerbs'
'Wel'
'Wahrscheinlichkeit_'
'Waffen'
'Vorh'
'Vorgehen'
'Vol'
'Vielmehr_'
'Vic'
'Verwendung_'
'Vertreter_'
'Vertr'
'Verteidigung_'
'Verschuldung'
'Verringerung_'
'Verpflichtung_'
'Verhandlungs'
'Verge'
'Vereinbarungen_'
'Ursachen_'
'Untersuchung'
'Untersch'
'UN'
'Tun'
'True_'
'Tra'
'Todes'
'Tod_'
'Times_'
'Time_'
'Tief'
'Tests_'
'Taliban_'
'Tage_'
'Sur'
'Stü'
'Str'
'Stimmung_'
'Steuersystem'
'Stattdessen_'
'Staatsverschuldung_'
'Staatsschulden_'
'Sprache_'
'Spiele'
'Sow'
'Souveränität_'
'Sie'
'Several_'
'Serb'
'Senkung_'
'Selbstver'
'Sektoren_'
'Seine_'
'See'
'Sea_'
'Schlag'
'Sch'
'Runde_'
'Rou'
'Rhetorik_'
'Rechtsstaatlichkeit_'
'Rea'
'Raketen'
'Qaeda_'
'QE_'
'Putins_'
'Punkt_'
'Proteste_'
'Produ'
'Pro_'
'Prioritäten_'
'Pra'
'Polit'
'Pol'
'PA'
'Obamas_'
'Nuklear'
'Normal'
'Nic'
'Nevertheless_'
'Neben'
'National'
'Namen_'
'Mod'
'Mitgliedern_'
'Mitarbeiter_'
'Milliarde_'
'Met'
'Meinungsumfragen_'
'Mei'
'Mehr_'
'Medikament'
'Marktes_'
'Mann_'
'Mangel_'
'Management_'
'Malaria_'
'MO'
'ME'
'Lula_'
'Luftverschmutzung_'
'Liv'
'Like_'
'Libyen_'
'Lebens_'
'Lea'
'Landwirtschaft_'
'Königreich_'
'Kräfte_'
'Krediten_'
'Kooperation_'
'Kont'
'Konsequenzen_'
'Konflikte_'
'Kombination_'
'Kluft_'
'Kla'
'Kai'
'K_'
'July_'
'Jugend'
'Jos'
'Is_'
'Internationale_'
'Inn'
'Inflationsrate_'
'Industrieländern_'
'Inde'
'ISIS_'
'Hy'
'Hor'
'Hinsicht_'
'Herz'
'Has'
'Güter_'
'Große_'
'Gro'
'Griechenlands_'
'Grenze_'
'Greeks_'
'Golf'
'Gleichzeitig_'
'Gla'
'Geschicht'
'Ges'
'Georgia_'
'Generationen_'
'Gas'
'Ganze'
'Führungsrolle_'
'Funktion'
'Friedens'
'Fri'
'Frankreichs_'
'Formen_'
'Forderungen_'
'Flu'
'Finanzierungs'
'Familien'
'Erwartungen_'
'Erh'
'Eng'
'Egyptian_'
'Eb'
'Drittens_'
'Drittel_'
'Dritte'
'Doha_'
'Diskriminierung_'
'Dilemma_'
'Des'
'Demo'
'Debatten_'
'Cur'
'Communist_'
'Cap'
'Canada_'
'CIA_'
'CA'
'Blut'
'Bis'
'Bes'
'Berufs'
'Bernanke_'
'Bereiche_'
'Beobachter_'
'Begriff_'
'Bal'
'Bah'
'Bag'
'Ayatollah_'
'Außenpolitik_'
'Autor'
'Australia_'
'Augen_'
'Aspekt'
'Arten_'
'Arg'
'Arafat_'
'Apple_'
'Ant'
'Anhänger_'
'Ang'
'Andernfalls_'
'Allgemeinen_'
'Ale'
'Ala'
'Abhängigkeit_'
'Abg'
'AP'
'AD'
'AAA_'
'28_'
'24_'
'23_'
'2050_'
'2'
'12'
'0er_'
' €_'
' -'
' &_'
'…'
'”)'
'“-_'
'ү'
'ь'
'ыл'
'ш'
'х_'
'ти'
'рі'
'ре'
'пр'
'ор'
'ко'
'ер'
'бол'
'ба'
'а_'
'üh'
'üche_'
'überwinden_'
'übernommen_'
'überh'
'überdenken_'
'üben_'
'öst_'
'öse_'
'örung_'
'ört'
'öglich'
'é'
'ätzt'
'ät'
'ärmsten_'
'ärkt'
'änge'
'äne'
'Überprüfung_'
'Überleben_'
'Überle'
'Öffnung_'
'zählen_'
'zweifellos_'
'zwang'
'zw'
'zustellen_'
'zunehmenden_'
'zufrieden'
'zue'
'zone'
'zit_'
'ziplin'
'zip'
'zig_'
'zier'
'zieht_'
'zeuge_'
'zerstör'
'zentralen_'
'zeichn'
'za_'
'yn'
'yield_'
'wü'
'wu'
'words_'
'word_'
'woman_'
'wn'
'wissenschaft'
'wish'
'wirksame_'
'wind'
'willig'
'westliche_'
'wenig'
'welt_'
'weiteres_'
'weigh'
'weg_'
'wave_'
'watch'
'wat'
'wahlen_'
'waffen_'
'wachstum_'
'vorr'
'vorbei_'
'vorbe'
'volume'
'volle'
'voll'
'vität_'
'vity_'
'vin'
'village'
'vielmehr_'
'viable_'
'verändern_'
'verwalte'
'verursacht_'
'vertrag'
'verteidigen_'
'verspricht_'
'verleihen_'
'verla'
'vergeb'
'verbundene'
'verbre'
'verba'
'vely_'
'utz'
'uted_'
'usual_'
'usch'
'urteil'
'urr'
'urg'
'urf_'
'unterz'
'untersuch'
'unterstütz'
'unterschiedlich'
'unsch'
'united_'
'ungsk'
'undoubtedly_'
'und'
'unan'
'unabhängige'
'unabhängig_'
'umst'
'ump'
'ument'
'umb'
'ull'
'uli'
'uku'
'uk'
'uit_'
'uit'
'ugu'
'uen_'
'uell'
'uct'
'uch'
'uble'
'uba'
'tä'
'twice_'
'twentieth_'
'tw'
'tum'
'tter_'
'tte'
'truct'
'trifft_'
'transformation_'
'transfer_'
'tradition'
'tos'
'top'
'tlich_'
'tive'
'tigt'
'tight'
'tigen_'
'tiefer_'
'tial_'
'thy_'
'throw'
'threaten_'
'threaten'
'therap'
'the'
'tg'
'tet'
'temp'
'tellen_'
'targeted_'
'tapi_'
'tag'
'tabili'
'sympath'
'surprising_'
'surpluses_'
'supporting_'
'supp'
'suchen_'
'stürzen_'
'stärksten_'
'stärkere_'
'studies_'
'strongly_'
'streck'
'stor'
'stimulate_'
'steigt_'
'steady_'
'stated_'
'state'
'stand'
'stag'
'stabile'
'ssch'
'sre'
'sr'
'späten_'
'spring_'
'spirit_'
'spart'
'soziale'
'sow'
'sorg'
'sonst_'
'solid_'
'sof'
'socialis'
'sko'
'skepticism_'
'ska'
'sinnvoll'
'signs_'
'sieben_'
'sie'
'sia'
'shifts_'
'shee'
'sharply_'
'sets_'
'ser_'
'sem'
'selbstverständlich_'
'selben_'
'sek'
'seit'
'secara_'
'seba'
'schwächere'
'schwe'
'schwachen_'
'schuld'
'scht'
'schlechten_'
'schlecht_'
'sch'
'scan'
'saw_'
'sac'
'saat_'
'rößer'
'rö'
'ry'
'rut'
'rungen_'
'rsi'
'rop'
'roll_'
'rochen_'
'rob'
'rke'
'risiko_'
'rip'
'riot'
'right'
'riffen_'
'richt'
'rg'
'reward'
'revenue_'
'retre'
'retirement_'
'restr'
'resp'
'resort_'
'resolution_'
'resistance_'
'resist_'
'resilien'
'reserven_'
'republi'
'repräsentier'
'representatives_'
'repeat'
'relia'
'released_'
'reite'
'reinforcing_'
'reicht_'
'reicher'
'regulier'
'regulated_'
'regardless_'
'refus'
'reforme'
'red'
'rect'
'recommend'
'recogniz'
'rechts_'
'received_'
'realize'
'realistische'
'real'
'read'
'rbe'
'rational'
'rati'
'race_'
'quoten_'
'quent'
'quarter_'
'pushing_'
'pursued_'
'purchasing_'
'pun'
'ption_'
'prüf'
'proven_'
'protecting_'
'proposals_'
'prop'
'promote'
'projekte'
'prog'
'profitab'
'profit_'
'professional_'
'produk'
'problemati'
'problem'
'private'
'prev'
'pressures_'
'presidents_'
'presented_'
'prepared_'
'premi'
'ppen_'
'possibly_'
'poo'
'pon'
'politisches_'
'polar_'
'poc'
'platform'
'planning_'
'plan'
'pill'
'pic'
'perv'
'performing_'
'perceived_'
'pemimpin_'
'pat'
'passi'
'passe'
'parti'
'parl'
'parity_'
'pap'
'pani'
'pag'
'owed_'
'owe'
'oversi'
'outr'
'ott'
'oto'
'ose'
'orthodox'
'orge'
'organis'
'organ'
'ore'
'ora'
'onne'
'ona'
'olg'
'oh'
'oftmals_'
'offers_'
'offered_'
'offene_'
'offen'
'ody_'
'objective_'
'oben_'
'ntu'
'note'
'nost'
'north'
'nkt_'
'nitt'
'niedrige'
'nglich'
'nf'
'neuer'
'net'
'ndung'
'ndl'
'ndes_'
'naval_'
'nati'
'narrow_'
'nam'
'nahe'
'nachhaltige'
'müsse_'
'möchten_'
'mäßige'
'mussten_'
'musste_'
'mte'
'motivier'
'mortgage_'
'mona'
'mixed_'
'missile_'
'minds_'
'minder'
'mina'
'mere_'
'merc'
'menu'
'mena'
'memba'
'melalui_'
'mela'
'mehreren_'
'meaningful_'
'mayor'
'materielle'
'match_'
'massiv_'
'mass'
'marke'
'marginal_'
'marc'
'manipulate'
'manipul'
'mande'
'manchen_'
'mana'
'mals_'
'mak'
'maintaining_'
'magn'
'machine_'
'löst'
'längere'
'läge_'
'luar_'
'ltung_'
'ltung'
'losigkeit_'
'los'
'looked_'
'lokale'
'logic_'
'lobby'
'lität_'
'list'
'ling'
'life'
'lieb'
'liberalization_'
'liberali'
'lia'
'let'
'lern'
'leichter'
'leich_'
'lehnt'
'legacy_'
'lebens'
'landwirtschaftliche'
'lament'
'lalu_'
'lai'
'lah_'
'lah'
'lage_'
'künfte'
'kümmern_'
'kun'
'ktive'
'ktion_'
'kte_'
'kräfte_'
'kontin'
'konkrete'
'kne'
'kleiner_'
'kit'
'ki_'
'kemajuan_'
'keine'
'kat_'
'kas'
'kapitalis'
'kapital'
'kampf'
'kali'
'justif'
'journalists_'
'jemals_'
'jara'
'jahr_'
'itt'
'ith'
'itas_'
'isti'
'istan'
'ison'
'isn_'
'isa'
'irm'
'irgendeine'
'iranischen_'
'ipt'
'ior'
'investi'
'invested_'
'invent'
'introduce'
'intelligente'
'integrated_'
'institutionelle_'
'institution'
'insig'
'inno'
'innere'
'inner'
'initial_'
'inherent'
'info'
'ined_'
'induce'
'index_'
'inden_'
'inction_'
'incre'
'inability_'
'impu'
'imposing_'
'impos'
'import'
'implementing_'
'imperative_'
'impe'
'ille'
'ill'
'iliation_'
'ika_'
'ih'
'iger'
'iffen_'
'iff'
'iell'
'iel'
'ied'
'iebe'
'ieb'
'idi'
'ideology_'
'ide_'
'ict'
'iche_'
'icat'
'ibat'
'ial'
'hör'
'höhere'
'hänge'
'hungen_'
'humans_'
'hten_'
'ht'
'hrte_'
'hostil'
'honor'
'home'
'hole'
'hoff'
'hir'
'hinge'
'hilf'
'hil'
'hielt_'
'hidup_'
'hi_'
'heut'
'hervor_'
'herrsch'
'heri'
'hegemony_'
'health'
'headw'
'hd'
'haushalt'
'haus'
'harder_'
'handel'
'hafte'
'gun'
'guid'
'gte_'
'gründe'
'großem_'
'griff'
'grenzüber'
'greatly_'
'gran'
'gradually_'
'govern'
'gni'
'gliche'
'glaubte'
'ghe'
'gewählt_'
'getötet_'
'geschäft'
'geschw'
'gern_'
'gerichtet'
'genes_'
'generated_'
'genannte_'
'gemäßigte'
'gemeinschaft'
'gelungen_'
'gel_'
'geh'
'geg'
'gefährliche_'
'gea'
'gave_'
'gangen_'
'gan'
'gaining_'
'gained_'
'führende_'
'front_'
'friedlichen_'
'fried'
'fresh_'
'forum'
'fort_'
'folgende_'
'fle'
'flat'
'fish'
'fine_'
'fine'
'finanzierung_'
'finanzieren_'
'finanzieller_'
'final_'
'field_'
'fern'
'female_'
'fehlen'
'feel'
'feed_'
'fass'
'fashion'
'false_'
'facto_'
'ey_'
'extremis'
'extension_'
'extended_'
'exporter'
'exploit'
'experiment'
'expanding_'
'expanded_'
'exist_'
'exercise_'
'exce'
'eva'
'eure_'
'etz'
'ett'
'etr'
'ete'
'estimates_'
'este'
'esta'
'erweise_'
'ertr'
'ernst_'
'erle'
'erheblich_'
'erfüllt_'
'erer_'
'erei'
'erbr'
'equality_'
'entsch'
'entfernt_'
'enter_'
'enlargement_'
'enk'
'enjoy'
'engineering_'
'ends_'
'ending_'
'enba'
'emis'
'elli'
'elements_'
'ektor_'
'einzigen_'
'einzige'
'einzigartige'
'einschl'
'eins_'
'einkommen_'
'einfache'
'eier'
'ei_'
'ehe'
'egt'
'ege'
'een'
'echte_'
'eat'
'eastern_'
'earn'
'dynamism_'
'dynamic_'
'dun'
'dscha'
'drastisch'
'downward_'
'dn'
'divi'
'distr'
'discussion_'
'disappear'
'difficulties_'
'dge'
'deuten_'
'determined_'
'detail'
'dest'
'describe'
'derzeitigen_'
'dens'
'deli'
'delay'
'defen'
'debts_'
'deal'
'deadl'
'dauerhafte'
'daily_'
'dachte'
'cus'
'crowd'
'crop'
'criticism_'
'crip'
'cover_'
'coup'
'corporations_'
'coordination_'
'convict'
'contributing_'
'continu'
'conte'
'confident_'
'conduct'
'conclu'
'computer_'
'compet'
'common'
'colleagues_'
'collaps'
'clea'
'cle'
'civilians_'
'cip'
'chts'
'chtige'
'chtete'
'cht'
'chst'
'chl'
'check'
'cheap_'
'charges_'
'chaos_'
'chain_'
'caught_'
'cation_'
'cash_'
'carried_'
'carefully_'
'calling_'
'broad'
'bringing_'
'brid'
'bou'
'bottom_'
'boom'
'bon'
'bod'
'blick'
'bilität'
'beweg'
'bewahren_'
'bestätigt'
'bestimm'
'bestehende_'
'beseitigen_'
'beschäftigt_'
'beschäftigen_'
'berühmte'
'beruhen_'
'berp'
'berech'
'beneficia'
'bekämpfen_'
'begr'
'begegnen_'
'befür'
'befindet_'
'bee'
'bedingungen_'
'bear'
'barr'
'bare'
'banken_'
'bang'
'band'
'bai'
'bahan_'
'backs'
'ay'
'ax'
'auto'
'ausschließlich_'
'aum_'
'aufweis'
'aufkommen'
'aufh'
'aufgeb'
'aufeinander'
'atu'
'ative'
'ater'
'ate'
'asylum_'
'assu'
'assi'
'asiatische_'
'armen_'
'aren'
'arbeitslos'
'apparently_'
'apart'
'anzunehmen_'
'antwort'
'anst'
'announced_'
'anhalten'
'anh'
'angs_'
'angewandt'
'angest'
'angemessen'
'angeblich'
'anerkannt'
'andererseits_'
'analy'
'amerikanischer_'
'amen'
'ame'
'ambitious_'
'alter_'
'allzu_'
'alleged'
'alis'
'alia'
'alan'
'aktive'
'akt'
'agreements_'
'aggregate_'
'agend'
'agencies_'
'aged_'
'affairs_'
'advances_'
'advance_'
'administrative_'
'addressed_'
'adapt_'
'ada'
'acquir'
'acknowledged_'
'ack'
'aci'
'achs'
'achievement'
'achiev'
'accountable_'
'accountability_'
'acco'
'absence_'
'abrupt'
'ably_'
'abkommen_'
'Zwei'
'Zust'
'Zen'
'Yu'
'You_'
'You'
'Yas'
'Wunde'
'Work'
'Without_'
'Wissenschaftlern_'
'Wissen_'
'Wirtschaftsl'
'Wirtschaftsa'
'Wirksamkeit_'
'Win'
'Wille'
'Wiederherstellung_'
'Widerstands'
'Westens_'
'Weltm'
'Weltb'
'Wechselkurse_'
'Wechselkurs_'
'Wechselkurs'
'WTO_'
'Vorstellungen_'
'Vorstellung_'
'Vorsch'
'Vorr'
'Voraussetzung_'
'Vis'
'Vie'
'Verteilung'
'Versuche_'
'Verst'
'Versi'
'Verschl'
'Verluste_'
'Verfa'
'Ven'
'Ve'
'Us'
'Urteil'
'Untersuchung_'
'Unruhen_'
'Ungleich'
'Unabhängigkeit_'
'Umwelt_'
'Tä'
'Turkish_'
'Turk'
'Treffen_'
'Tradition_'
'Tot'
'Todesfälle_'
'Tibet_'
'Third_'
'Theorie_'
'Tex'
'Ten'
'Technolog'
'TO'
'Szenario_'
'Syrian_'
'Sw'
'Sup'
'Summ'
'Strukturen_'
'Struktur'
'Stre'
'Straßen_'
'Stimme_'
'Still_'
'Steuer_'
'Stability_'
'Spie'
'Spa'
'Sollte_'
'Social_'
'Soci'
'Slo'
'Sk'
'Sinne_'
'Sind_'
'Sho'
'Schä'
'Schwäche_'
'Schwäch'
'Schwe'
'Schre'
'Schock'
'Schl'
'Schei'
'Schatten_'
'Sc'
'Saud'
'Sat'
'Sach'
'ST'
'SD'
'Rückkehr_'
'Roosevelt_'
'Roman'
'Reze'
'Republikaner_'
'Renminbi_'
'Regi'
'Reagan_'
'Rates_'
'Raf'
'Qui'
'Qualität_'
'Psych'
'Präsidenten'
'Projekt_'
'Program'
'Prognosen_'
'Produktivität_'
'Produkte_'
'Problems_'
'Priorität_'
'Power_'
'Potenzial_'
'Poliz'
'Plat'
'Philippine'
'Pem'
'Parliament_'
'Pap'
'Ot'
'Or_'
'Online_'
'OS'
'Nutzung_'
'Nun_'
'Null'
'Nu'
'Notenbanken_'
'Nordkorea_'
'Nonetheless_'
'Netzwerk'
'Netto'
'Net'
'Nationale'
'Mun'
'Moscow_'
'Monat'
'Moment_'
'Mittelschicht_'
'Minderheiten_'
'Medien'
'Maschine'
'Mandat_'
'Lü'
'Lisbon_'
'Lin'
'Lim'
'Les'
'Leit'
'Lei'
'Laufe_'
'Late'
'LO'
'LE'
'LA'
'Kö'
'Käufe'
'Krisen_'
'Kriege_'
'Kreditgeber_'
'Korean_'
'Konzept_'
'Konze'
'Kontr'
'Kontinent_'
'Konse'
'Konf'
'Kompetenz'
'Kirch'
'Kind_'
'Kha'
'Kata'
'Kapitalismus_'
'Kandidat'
'Kam'
'Jobs_'
'Islamist_'
'Insel'
'Indonesia_'
'Indem_'
'Inc'
'Imp'
'Immobilien_'
'IN'
'III_'
'IB'
'Höhepunkt_'
'Hisbollah_'
'His_'
'Him'
'Hier_'
'Hen'
'Hause_'
'Handlung'
'HI'
'Gü'
'Gründung_'
'Großen_'
'Greenspan_'
'Gold_'
'Glaubwürdigkeit_'
'Get'
'Germans_'
'Gerichts'
'Gerechtigkeit_'
'Georgien_'
'Gemeinschaften_'
'Gemeinsam'
'Geist'
'Geheim'
'Gates_'
'Gas_'
'Gang_'
'Gan'
'Furthermore_'
'Früh'
'Flug'
'Fis'
'Finanzsystems_'
'Finanzminister_'
'Fernsehen_'
'Fehl'
'February_'
'Fas'
'Familien_'
'FDI_'
'Exporte_'
'Europ'
'Ethi'
'Est'
'Erwärmung_'
'Eropa_'
'Erm'
'Entsch'
'Energy_'
'Eltern_'
'Elite_'
'Einstellung_'
'Eing'
'Einführung_'
'Eine'
'Ecuador_'
'EN'
'Dy'
'Durchschnitt'
'Draghi_'
'Dor'
'Diskussion_'
'Disku'
'Diplomatie_'
'Dienstleistungs'
'Desi'
'Deshalb_'
'Democrats_'
'Deflation_'
'Defense_'
'Dec'
'Dama'
'DPJ_'
'DA'
'Countries_'
'Cor'
'Committee_'
'Cl'
'Ci'
'Chirac_'
'Chart'
'Bürgern_'
'Bürgerkrieg'
'Bushs_'
'Bur'
'Brü'
'Bru'
'Brennstoffe_'
'Bon'
'Blo'
'Bl'
'Binnenmarkt_'
'Binnen'
'Bild_'
'Bev'
'Berlusconi_'
'Berlin_'
'Bereitschaft_'
'Bele'
'Beispielsweise_'
'Bei'
'Bau_'
'Basis_'
'Bash'
'Basel_'
'Barr'
'Balkan_'
'Automobil'
'Austr'
'Austausch_'
'Aussicht_'
'Auseinandersetzung'
'Auftr'
'Aufständ'
'Aufsicht'
'Aufr'
'Arbeite'
'Arabs_'
'Araber_'
'Anspr'
'Anpassung_'
'Anh'
'Angebot_'
'Analyse_'
'Also_'
'Alle_'
'Akti'
'Agrar'
'Aff'
': '
'80'
'48_'
'33_'
'., _'
'&#_'
'", _'
' – '
' [_'
'“'
'—_'
'өз'
'ын'
'ч'
'ты'
'с_'
'по'
'па'
'ос'
'м_'
'лы'
'ли'
'й_'
'ва'
'ал'
'ай'
'Б'
'üstung_'
'ührung_'
'ühr'
'üge_'
'üg'
'übrigen_'
'übrig'
'überzeugt_'
'übertrag'
'überste'
'überm'
'überlassen_'
'überaus_'
'üb'
'öt'
'öse'
'ökonomisch'
'öffnen_'
'öff'
'öder'
'äß'
'äufe'
'ätzung_'
'ätzen_'
'ätze_'
'ätig'
'äten_'
'ärkten_'
'ändert_'
'ällig'
'ählt'
'ähig'
'ägyptische'
'äft'
'äche'
'ße'
'Überzeugung_'
'Überw'
'Überein'
'Österreich_'
'Är'
'Änderungen_'
'Ähnlich'
'Ägypte'
'· _'
'  '
'zä'
'zwingen_'
'zustand'
'zunächst_'
'zunehmen_'
'zuletzt_'
'zukünftige_'
'zukünftige'
'zugu'
'zuf'
'zis'
'zierten_'
'zieren_'
'zielen_'
'ziehung'
'zeug'
'zers'
'zeitwei'
'zeichnet_'
'zehn'
'zahl_'
'ystem_'
'yp'
'ym'
'yar'
'yan'
'yal'
'würdige'
'wünsch'
'wäh'
'wusste'
'wre'
'wort'
'worry_'
'worri'
'wonder_'
'wollte_'
'withdrawal_'
'wissenschaftlichen_'
'wissenschaftliche'
'wirtschafts'
'wir'
'willingness_'
'willen'
'wiederholt_'
'wiederhol'
'wiederher'
'wider'
'whe'
'wh'
'west_'
'werte_'
'wert'
'werde_'
'weithin_'
'weite_'
'wegs_'
'weg'
'wealthy_'
'waters'
'waste_'
'waste'
'warne'
'wander'
'waktu_'
'wahren_'
'wahre_'
'wahl_'
'wad'
'wachstums_'
'vu'
'vorstell'
'vorhanden'
'vorauss'
'voraus'
'vollen_'
'vität'
'vis_'
'virus_'
'vir'
'vielf'
'vest'
'veränderte'
'verändert_'
'verwenden_'
'verwe'
'versuch'
'verste'
'version_'
'versicherung'
'versetz'
'verschwende'
'verschlechter'
'verschieden'
'verringert_'
'vernicht'
'vermittel'
'verlor_'
'verletz'
'verlassen_'
'verhält'
'verhand'
'verbreiteten_'
'verantwortung'
'veranlasst'
'val_'
'vage'
'uto'
'ust'
'ures_'
'urban'
'unz'
'unw'
'untere'
'unten'
'unted_'
'unserem_'
'unkonventionelle'
'univers'
'unilateral'
'unifi'
'ungsw'
'ungsv'
'ungspro'
'ungew'
'undertak'
'understandabl'
'underscore'
'undermining_'
'unden_'
'unda'
'unbea'
'umsetz'
'umfassende'
'umfassen_'
'ultimate_'
'ulier'
'ular'
'uis'
'uen'
'ude_'
'ud_'
'ud'
'uci'
'uchs'
'uation'
'uat'
'uan_'
'tö'
'täte'
'tyran'
'typically_'
'twenty_'
'twe'
'tungen_'
'tun'
'tua'
'ttle'
'trü'
'trägt_'
'träger'
'träg'
'truktur'
'triumph'
'trieb'
'trib'
'treaty_'
'treaties_'
'transparency_'
'transform_'
'transferr'
'tragi'
'traditionelle_'
'tradable_'
'toxi'
'tow'
'toc'
'tit'
'tionen_'
'tika'
'tigung_'
'tical'
'tia'
'thirds_'
'theori'
'teur'
'terri'
'tern'
'termasuk_'
'tered_'
'tere'
'tends_'
'tend'
'teilnehme'
'tei'
'technologische'
'technical_'
'tba'
'tatsächliche'
'taste'
'tam'
'sätze_'
'symbolis'
'swing'
'sweep'
'suspe'
'supr'
'supporters_'
'sunnitische'
'sung'
'sun'
'summit_'
'sumber_'
'sul'
'suff'
'subsidiz'
'ständ'
'struktur_'
'structures_'
'strict'
'streets_'
'strafe_'
'stoffe'
'stimate'
'stil'
'stige'
'stem_'
'stellten_'
'stei'
'stehende_'
'sted_'
'stecken_'
'stay_'
'stat'
'starters_'
'starte'
'stage'
'stabil'
'staatlich'
'ssen'
'ssed_'
'srat'
'spread'
'spiegel'
'special'
'speaking_'
'spar'
'sourc'
'solved_'
'sole'
'soldiers_'
'solches_'
'sogenannte'
'sofort_'
'social'
'sobald_'
'sme'
'slowly_'
'sl'
'sky_'
'site_'
'sit_'
'similar'
'silence_'
'sik'
'sight'
'sierte'
'sieren_'
'sieg'
'sichtig'
'sicht'
'sicheren_'
'shut'
'showing_'
'she'
'shake'
'setzte_'
'settlements_'
'serving_'
'sentiment_'
'send_'
'semi'
'seite_'
'sein'
'sed'
'secret_'
'sebuah_'
'sebe'
'scu'
'screen'
'schü'
'schwer'
'schme'
'schm'
'schläge_'
'schlimmer_'
'schlimm'
'scher'
'scheme'
'schem_'
'scheinbar_'
'schein'
'satz_'
'satu_'
'sales_'
'saja_'
'sagt_'
'safeguard'
'sad'
'sacrifice'
'räum'
'rve'
'russ'
'rum_'
'rukt'
'rufen_'
'ruf'
'rred_'
'rock'
'rni'
'rl'
'riv'
'ritt'
'risik'
'rio'
'riff'
'rier'
'riche'
'returned_'
'retr'
'retire'
'resulted_'
'resu'
'ress_'
'responsi'
'respond'
'resiste'
'resign'
'reserve_'
'requir'
'republikanische'
'report'
'replaced_'
'replace'
'repeatedly_'
'reo'
'rent_'
'renewable_'
'remember_'
'reifen_'
'reichende'
'reich_'
'regulat'
'regieren'
'regi'
'regarded_'
'refused_'
'reformist'
'reformi'
'recover_'
'reck'
'rechten_'
'rece'
'realis'
'reale'
'reagiert'
'reaction_'
'rchi'
'rating_'
'rand'
'rain_'
'rain'
'radi'
'racht_'
'quot'
'quit'
'quick'
'quarters_'
'quar'
'quantitativen_'
'quali'
'qi'
'pä'
'punkte'
'punish'
'publicly_'
'psychiatris'
'provider'
'protected_'
'proportional_'
'properly_'
'promising_'
'projected_'
'proje'
'programme_'
'produz'
'producing_'
'producers_'
'prior'
'pride_'
'prec'
'pou'
'poten'
'pot'
'pose_'
'porat'
'poorest_'
'poorer_'
'politi'
'pledge'
'pita'
'pioneer'
'piece_'
'phi'
'phe'
'phase_'
'pfl'
'persuade'
'permi'
'permanently_'
'peration'
'perat'
'penu'
'pende'
'pend'
'peaceful_'
'pe_'
'partial'
'parteien_'
'panic_'
'pang'
'palästinensischen_'
'oß'
'owner'
'ow'
'overseas_'
'overl'
'outcomes_'
'osten'
'ossen'
'ors'
'orma'
'original'
'orie'
'organized_'
'organiz'
'orderungen_'
'orat'
'orang_'
'optimisti'
'optim'
'operation'
'open'
'ontr'
'ont'
'onis'
'ones_'
'onary_'
'omp'
'omi'
'ome_'
'ome'
'olving_'
'ology_'
'olo'
'ohn'
'offs_'
'off'
'occupation_'
'observers_'
'obse'
'obi'
'ober'
'obe'
'näher_'
'nä'
'nw'
'nutrition_'
'nungen_'
'nuk'
'nter'
'nted_'
'nsch'
'nowhere_'
'nou'
'notwendigen_'
'nl'
'nken_'
'nist'
'nischen_'
'nine_'
'nin'
'night_'
'niemand_'
'ngen'
'neutral'
'neun_'
'networks_'
'nes'
'nern_'
'neo_'
'nennen_'
'neigen_'
'neig'
'nehmer_'
'negativ_'
'neben_'
'ndlich_'
'ndert_'
'nce'
'nate'
'nan_'
'namely_'
'nahmen_'
'na_'
'mögen_'
'mäßig'
'mär'
'mutige'
'mut'
'murder_'
'multilateral'
'multi'
'mula'
'muda'
'mt_'
'mpin'
'mounting_'
'mount_'
'mot'
'moralische_'
'mood_'
'moment'
'moderne_'
'models_'
'mobile_'
'mix_'
'mitt'
'mission'
'mir'
'minorities_'
'ministr'
'mining_'
'mind_'
'migra'
'methods_'
'mera'
'menya'
'mening'
'meinem_'
'mei'
'mechanisms_'
'meaning_'
'matur'
'mate'
'massiven_'
'masse'
'manifest'
'mangelnde'
'mandat'
'makroökonomische'
'machte_'
'mac'
'lüsse'
'lze'
'lz'
'lur'
'lum'
'lue'
'lts'
'lowest_'
'lom'
'lokalen_'
'llusion'
'llig'
'lived_'
'lism'
'lift'
'liefern_'
'liber'
'li_'
'lete'
'lending_'
'lender'
'lement'
'leistung'
'leis'
'legitimier'
'lebt'
'lde'
'lay'
'laufende'
'laufen_'
'laud'
'lateral'
'lass'
'lant'
'langsame'
'lance_'
'lad'
'kü'
'könne_'
'kämpfen_'
'kung'
'kular'
'kte'
'kritische'
'kraft'
'korea'
'kop'
'konzipiert'
'konvention'
'konst'
'komplexe'
'kompet'
'kommun'
'komme'
'kling'
'kleineren_'
'klassische'
'kina'
'kern_'
'kerja_'
'kennen_'
'katastrophale'
'kamen_'
'jüngst'
'jährige'
'justified_'
'jud'
'jua'
'journal'
'join'
'jet'
'jekt'
'j_'
'iv_'
'istischen_'
'istisch'
'isten_'
'israelischen_'
'isolation_'
'isiert'
'irgendw'
'ira'
'ion'
'investitionen_'
'investasi_'
'invasion_'
'intelligence_'
'intellectual_'
'integrierte'
'inte'
'inta'
'inspect'
'insolven'
'insch'
'ink'
'ini'
'informelle'
'influential_'
'inflation'
'infect'
'inefficient_'
'industri'
'indirekt'
'indicati'
'indicates_'
'indebted'
'included_'
'inal'
'impressi'
'importance_'
'imply'
'impl'
'imp'
'immo'
'immer'
'imat'
'illi'
'illegal_'
'igte'
'ignoring_'
'ignore_'
'iesen_'
'ies'
'ierende'
'iere'
'ient'
'ienst'
'iehung_'
'ieht_'
'iege'
'ieb_'
'identifizier'
'identifi'
'identi'
'ide'
'icke'
'höh'
'häus'
'hän'
'hypothe'
'hunger'
'hundreds_'
'hum'
'hours_'
'horr'
'hoo'
'hon'
'homo'
'holi'
'hoher_'
'hohem_'
'hlt'
'hlen_'
'hkan_'
'hit'
'historischen_'
'histori'
'hinaus'
'hike'
'herz'
'hervorgebracht_'
'hers_'
'herrschende'
'herauszu'
'help'
'hebe'
'heart'
'healthy_'
'harten_'
'harmoni'
'happiness_'
'hanya_'
'hamp'
'hal_'
'güter'
'gue'
'gruppen_'
'gruppe_'
'großzügig'
'gross'
'gro'
'griechische_'
'grenze'
'greif'
'gre'
'grav'
'grad'
'gr'
'gnet'
'gleiche_'
'gkeit_'
'give'
'gi_'
'ghten'
'gh_'
'geä'
'gezogen_'
'gewonnen_'
'gewiss_'
'gestaltet_'
'gespielt_'
'geschehen_'
'geru'
'geringer_'
'gericht'
'geopolitical_'
'genommen_'
'generating_'
'generate_'
'gene_'
'gende_'
'genau'
'gemäß'
'gem'
'gelten_'
'gelte'
'gelo'
'geldpolitische'
'gelang_'
'gehei'
'gegen'
'gefährliche'
'geber'
'gase'
'gas'
'gaps_'
'gam'
'für'
'füg'
'fördert_'
'fä'
'fy_'
'fur'
'fun'
'ftet'
'frühe'
'fristig'
'freilich_'
'foundation_'
'fossile'
'formula'
'foresee'
'fordert_'
'fo'
'flü'
'fly'
'floo'
'flaw'
'fixed_'
'fiskal'
'fis'
'fire_'
'finds_'
'finding_'
'finanzierte'
'fican'
'fferen'
'ffen'
'ffe_'
'festgelegt_'
'feste'
'fehlt_'
'far'
'faith_'
'factor_'
'fabric'
'eß'
'eye'
'extremely_'
'extraordinar'
'extr'
'externe_'
'extend'
'express'
'expose'
'exportier'
'exporte'
'explosi'
'explanation_'
'explain'
'experiment_'
'experiences_'
'expensive_'
'expense_'
'expecta'
'expansi'
'existen'
'exi'
'executive_'
'exclusive'
'exacerbate'
'even'
'euros_'
'europäischer_'
'euro'
'eun'
'ethnische'
'ethische'
'ethi'
'eter'
'etablier'
'esp'
'esch'
'escalat'
'erwähn'
'erwä'
'erwerb'
'erse'
'erreich'
'eros'
'ermutigen'
'erleb'
'erkannt_'
'eris'
'ering_'
'erhoben'
'erhielten_'
'erheblichen_'
'ergr'
'ergi'
'ergeben_'
'erge'
'erfu'
'erfolgreiche'
'erende'
'erat'
'equa'
'epi'
'eph'
'envi'
'entz'
'entwicklung_'
'entspricht_'
'entsprechende_'
'entry_'
'enthusias'
'ental'
'enr'
'ening_'
'enh'
'enforcement_'
'energi'
'endung'
'ency_'
'encouraged_'
'encou'
'emu'
'employees_'
'empire_'
'emi'
'eller_'
'elle'
'ell'
'elites_'
'eless'
'elde'
'ek_'
'eiten_'
'eise'
'einzelne'
'eintreten_'
'einst_'
'einsetz'
'einnahmen_'
'eingeschränkt_'
'eingeb'
'eight_'
'eigener_'
'eibe'
'ehrt_'
'ehmen_'
'eh_'
'egu'
'egen'
'eful'
'efi'
'effizienter_'
'educational_'
'eden_'
'ecess'
'eba'
'ease'
'earnings_'
'dut'
'durchzuführen_'
'durchsetz'
'drängt'
'droht_'
'drawing_'
'dramatisch_'
'drag'
'dr'
'dozen'
'doppelt'
'don'
'dominier'
'dominate_'
'dom'
'dok'
'divide'
'diversi'
'diver'
'disruption'
'dispos'
'disorder'
'disasters_'
'disappoint'
'direkten_'
'direct'
'diplomatische_'
'diplomati'
'diper'
'dio'
'dikt'
'dieselbe_'
'dies'
'diagnosti'
'deutet_'
'deserve_'
'depart'
'denie'
'dence_'
'demonstr'
'demokratischer_'
'demokratisch'
'demographic_'
'dem'
'delivered_'
'definiert_'
'defined_'
'declines_'
'deckt'
'decke'
'debatte'
'dead_'
'dau'
'dal_'
'cycl'
'cyber'
'cut'
'cultur'
'cry'
'cro'
'criminal'
'credit'
'counter'
'corner'
'convinced_'
'convinc'
'contradict'
'context_'
'contagion_'
'consu'
'constitute'
'consist'
'consequence_'
'cons'
'confronted_'
'confront'
'confl'
'conference_'
'condemned_'
'compromise_'
'competing_'
'communist'
'communications_'
'colonial'
'collaborati'
'coa'
'closely_'
'clos'
'claimed_'
'cks_'
'cking_'
'cki'
'cker_'
'citizen'
'cil'
'chtung_'
'chma'
'chlich'
'chafts'
'cess'
'certainty_'
'cep'
'cell'
'cc'
'cautio'
'categor'
'cated_'
'catch'
'cas'
'care'
'cara_'
'capabilities_'
'campaigns_'
'calculat'
'c'
'bureaucrats_'
'bun'
'brutal_'
'broadly_'
'brechen_'
'brech'
'brasilianische'
'brain_'
'borrowing_'
'blutige'
'blow_'
'blieb_'
'bless'
'blame_'
'bit_'
'birth'
'bili'
'bilde'
'bil'
'bigger_'
'bewirken_'
'beurteil'
'beste'
'best'
'besitzt_'
'beschreib'
'beschleunigen_'
'beri'
'bereite'
'berechtigt'
'beobachten_'
'benötigte_'
'benefit'
'bena'
'bele'
'bekämpf'
'beizu'
'beitr'
'behandeln_'
'behalten_'
'begonnen_'
'beginnt_'
'begi'
'befr'
'befa'
'bedingte'
'bedenk'
'baut'
'basier'
'base'
'bargain'
'balancing_'
'bailout_'
'aßnahmen_'
'azi'
'avoid'
'aver'
'ausw'
'aust'
'ausreichen'
'ausges'
'ause'
'aug'
'aufb'
'aue'
'audience'
'audi'
'aturan_'
'attack'
'ato'
'assuming_'
'associated_'
'assist'
'assessment_'
'ass_'
'arri'
'arrested_'
'arrangements_'
'arise'
'arbeiter_'
'arbeite'
'arbeit'
'aran'
'arabische_'
'approach'
'apply'
'apparent_'
'appa'
'anzukurbeln_'
'anstieg'
'announc'
'anlagen_'
'animals_'
'angenommen_'
'angemessene_'
'analysis_'
'analys'
'alo'
'alit'
'alism_'
'alisiert'
'alige'
'aler'
'alarmi'
'aktiv_'
'aktionen_'
'ahm'
'ahe'
'agieren_'
'aggr'
'affect'
'admit_'
'admit'
'adi'
'add_'
'adaptation_'
'acknowledge_'
'accepta'
'abuse_'
'ablehn'
'abili'
'abhängig'
'abgew'
'aan_'
']'
'[_'
'Zwischen_'
'Zuw'
'Zus'
'Zunächst_'
'Zugriff_'
'Zivilgesellschaft_'
'Zh'
'Zer'
'Zahlungs'
'X'
'Wu'
'Wort_'
'Wochen_'
'Wit'
'Wissenschaftler_'
'Wirtschaftskrise_'
'Wird_'
'Wiederauf'
'Where'
'Wetter'
'West'
'Werten_'
'Wert'
'Wer'
'Weltwirtschafts'
'Weiße'
'Web'
'Wachstumsp'
'WHO_'
'Völker'
'Vorschläge'
'Vors'
'Vorl'
'Vordergrund_'
'Vorbereitung'
'Volkes_'
'Verwaltungs'
'Verw'
'Verträge'
'Verstä'
'Versorgung'
'Vermögens'
'Vermi'
'Verhaltens'
'Verh'
'Vereinig'
'Verbündeten_'
'Vater_'
'Var'
'Unz'
'Until_'
'Unsicherheit_'
'Universität'
'Uni'
'Umgang_'
'Ty'
'Tsch'
'Trä'
'Trends_'
'Trend_'
'Tre'
'Transp'
'Tochter'
'Titel'
'Theo'
'Ter'
'Tendenz'
'Tele'
'Teh'
'Technik_'
'Tay'
'Tak'
'Tagen_'
'TB_'
'TA'
'Symbol_'
'Strom_'
'Sto'
'Steuererhöhungen_'
'Stellung_'
'Standard_'
'Stalin_'
'Stagnation_'
'St'
'Spring_'
'Spekulation'
'Spaltung_'
'Solange_'
'Sohn_'
'Sit'
'Singapur_'
'Singapore_'
'Serikat_'
'Ser'
'Senate_'
'Senat'
'Sec'
'Schätzungen_'
'Schäden_'
'Schweden_'
'Schwarz'
'Schulen_'
'Schr'
'Schn'
'Schm'
'Schluss'
'Sand'
'Russen_'
'Ruhe'
'Roma_'
'Rohstoff'
'Ris'
'Rettungs'
'Rettung_'
'Resi'
'Rep'
'Renditen_'
'Religio'
'Regel_'
'Rechnung'
'Reali'
'Reaktion'
'Raum_'
'Rather_'
'Rand_'
'RO'
'Quart'
'Punkte'
'Präsident'
'Prozesse'
'Prote'
'Projekt'
'Progress'
'Prof'
'Poli'
'Pläne_'
'Pfl'
'Pf'
'Peking_'
'Partnership_'
'Partnerschaft_'
'Pakistani_'
'PRI'
'PR'
'Ostasien_'
'Oc'
'Obers'
'Ob_'
'Norw'
'Nied'
'Nicolas_'
'Netanyahu_'
'Nas'
'Nachricht_'
'Nachhaltig'
'NI'
'NAFTA_'
'März_'
'Mädchen_'
'Multi'
'Monopol'
'Moham'
'Mittler'
'Mitgliedstaaten_'
'Mitgliedsländer_'
'Mission_'
'Mindest'
'Millennium'
'Migration_'
'Merkmal'
'Menschen'
'Men'
'Mechanism'
'McC'
'Mau'
'Mass'
'Marok'
'Market_'
'Mag'
'Long_'
'Lobby'
'Liquiditäts'
'Len'
'Lehren_'
'Lehre'
'Lebensstandard'
'Leb'
'Lead'
'Law_'
'Labour_'
'Labor_'
'Kämpfe'
'Kreditk'
'Kompromiss'
'Kommunikation'
'Kohlenstoff'
'Kohlendioxid'
'Kohle_'
'Koh'
'Kno'
'Klein'
'Klaus_'
'Kinder'
'Khamenei_'
'Keynesian_'
'Keine_'
'Katastrophen'
'Kapazitäten_'
'Kanada_'
'Kampagne_'
'Justiz_'
'Juli_'
'Journalisten_'
'Journal'
'Jews_'
'Jedes_'
'Jeder_'
'Jahr'
'Iraker'
'Investment_'
'Int'
'Institution_'
'Insp'
'Innovationen_'
'Ingenieur'
'Infrastruktur'
'Infolgedessen_'
'Industriep'
'Indians_'
'Index_'
'Import'
'Ih'
'IP'
'ID'
'Höhe'
'Hos'
'Hongkong_'
'Hon'
'Hitler_'
'Hillary_'
'Hig'
'Hera'
'Health_'
'Haus_'
'Hauptst'
'Hardliner'
'Handeln_'
'Haiti'
'HA'
'Gute'
'Gri'
'Grad_'
'Glücklicherweise_'
'Glück_'
'Gläubige'
'Globale'
'Glaube'
'Gewi'
'Gewerkschaften_'
'Gestalt'
'Gerichtshof_'
'Gemeinden_'
'Gei'
'Gegens'
'Gefahren_'
'Gedanken_'
'Ged'
'Gebiete_'
'Gar'
'GB'
'Fälle_'
'Freunde_'
'Freund'
'Fremd'
'Freihandelsabkommen_'
'Freih'
'Franzosen_'
'Fol'
'Flüchtlingen_'
'Flugzeug'
'Flor'
'Finanzm'
'Film'
'Festl'
'Fest'
'Fertig'
'Feier'
'Fan'
'Fach'
'Fac'
'Fabriken_'
'FD'
'FARC_'
'Exporte'
'Export_'
'Expe'
'Every'
'Erwerbs'
'Erste'
'Erkenntnis'
'Erfo'
'Entwicklungen_'
'Ents'
'Energies'
'Einwohner_'
'Einwanderer_'
'Einrichtungen_'
'Einla'
'Einhei'
'Einfluss'
'Eigenkapital_'
'Eigenheim'
'Effekt_'
'ER'
'EA'
'Durchsetzung_'
'Durchf'
'Dru'
'Dri'
'Dra'
'Dr'
'Direktor'
'Devisen'
'Deng'
'Democratic_'
'Defizite_'
'Defi'
'Deb'
'DE'
'Cuba_'
'Conve'
'Contr'
'Conf'
'Con'
'Com'
'City_'
'Churchill_'
'Chu'
'Christian_'
'Change_'
'Chancellor_'
'Center_'
'Cent'
'Cal'
'CO'
'CC_'
'Bürokrat'
'Brussels_'
'Botschaft_'
'Bosni'
'Bewältigung_'
'Bewegung'
'Bestä'
'Beste'
'Beschränkungen_'
'Berg'
'Bereitstellung_'
'Beobachtung'
'Ben_'
'Bekenntnis_'
'Beitr'
'Beijing_'
'Beh'
'Befürchtung'
'Bedrohungen_'
'Bay'
'BE'
'Autonomie_'
'Authority_'
'Ausst'
'Ausr'
'Ausländ'
'Ausbruch_'
'Aufsch'
'Asyl'
'Assa'
'Ash'
'Arzneimittel'
'Artikel_'
'Art'
'Arm'
'Arbeitsp'
'Arbeitnehmer'
'Arabi'
'Apa'
'Ansätze_'
'Anstrengungen_'
'Ansta'
'Anschläge'
'Anschl'
'Anreiz'
'Annan_'
'Anl'
'Angriffe_'
'Angelegenheiten_'
'Analys'
'American'
'Aktienm'
'Air'
'Ahmadinejad_'
'Agent'
'Ag'
'Afri'
'Act_'
'Abz'
'Absti'
'Abschwung'
'Abr'
'Abk'
'Abh'
'Aben'
'Abb'
'AT'
'90'
'600_'
'2016_'
'1995_'
'1992_'
'1980er_'
'1971_'
'1970er_'
'1960_'
'194'
'190'
'11'
'%)'
' ('
'”._'
'э'
'ци'
'ол'
'ес'
'ді'
'ды'
'г'
'в_'
'ан'
'С'
'üste'
'üs'
'ürfe'
'ünstig'
'ückl'
'üch'
'überwiegend_'
'überwie'
'überschuss_'
'übermäßige'
'überleben_'
'überf'
'überd'
'ößen'
'öst'
'ören_'
'örde_'
'öpf'
'önlichkeit'
'ökonomische_'
'öger'
'ögen_'
'ça'
'äuft'
'äufig'
'ätz'
'äter_'
'äte'
'ärt'
'änk'
'älter'
'äll'
'ähigkeit_'
'Überschuss_'
'Überga'
'Üb'
'Ölpreise_'
'Ölpreis'
'Ökonom'
'Ö'
'Ängst'
'zügig'
'zynisch'
'zweite'
'zweck'
'zutage_'
'zuk'
'zug'
'zle'
'zk'
'zivile'
'zient'
'ziemlich_'
'zielle'
'zh'
'zerstören_'
'zerbr'
'zell'
'zeitg'
'zeigte_'
'zai'
'zahlreiche_'
'zahlreiche'
'younger_'
'yes'
'yb'
'yan_'
'xp'
'xon_'
'xit'
'xist'
'währung_'
'wäch'
'wr'
'wound'
'worthy_'
'worrying_'
'worried_'
'wonach_'
'womöglich_'
'wolle'
'wissenschaftler_'
'wise'
'wisdom_'
'wirtschaftliches_'
'wirkt'
'wirk'
'window_'
'wichtige'
'white_'
'whi'
'wett'
'wesentliche'
'wesens_'
'werke'
'werk_'
'wend'
'welcome'
'weiterge'
'weist_'
'weiche'
'weather_'
'ward'
'wann_'
'wandel_'
'wan_'
'wake_'
'wahrgenommen_'
'wahr_'
'wachsende'
'völlige'
'voted_'
'vorschl'
'vorl'
'vorges'
'voranzu'
'von'
'vollständigen_'
'volatile_'
'voi'
'voca'
'visit_'
'visibl'
'virtu'
'violent_'
'vier'
'viele'
'vie'
'vet'
'veröffentlichte_'
'verän'
'verzeichne'
'verwir'
'verweis'
'verwandelt_'
'verwandeln_'
'verur'
'vertreten_'
'vertrauen'
'vertei'
'verstärkte'
'versorgung_'
'versich'
'verschärfen_'
'verschaffen_'
'versamm'
'versa'
'vers_'
'verpflicht'
'vernünftig_'
'vern'
'verlä'
'verlust'
'verlager'
'verkünde'
'verkauft'
'verhindert_'
'verhe'
'verhalten_'
'verglichen_'
'vergleich'
'verfügbar'
'verfassungs'
'verfahren_'
'verfa'
'verdient_'
'verbreitete_'
'verbreitet_'
'verbot'
'verbieten_'
'verbesserte_'
'verbessert_'
'vent'
'vei'
'vehicle'
'vation_'
'vast'
'valid'
'uße'
'utuh'
'utin'
'utig'
'usu'
'ustr'
'usly_'
'uru'
'ursprüngliche'
'ursprünglich_'
'urgen'
'uphe'
'uph'
'unzureichend_'
'unwilling_'
'unwahrscheinlich_'
'unvermeidlich_'
'unterstützten_'
'unterh'
'unsicher'
'unrealisti'
'unr'
'unlike_'
'unlic'
'unklar_'
'unions_'
'unilateralism_'
'ungan_'
'unft'
'unerwartet'
'unemployed_'
'undi'
'understood_'
'undermine'
'unconventional_'
'uncom'
'uncle'
'unb'
'unau'
'unange'
'unabhängige_'
'unab'
'umu'
'umso_'
'umgehen'
'umfassenden_'
'umfangreiche'
'umf'
'ume'
'ule'
'uldet'
'ula'
'ugi'
'uert'
'uel'
'ued_'
'ucti'
'uck'
'uche'
'uch_'
'uca'
'ubt_'
'ua_'
'tür'
'tär'
'tzung_'
'tzt'
'typi'
'twin'
'tur_'
'tts'
'tschaften_'
'trum_'
'trial_'
'trends_'
'trap'
'transport'
'transnational'
'transmi'
'transit'
'train'
'traffic_'
'tr'
'tp'
'town_'
'tors_'
'too'
'tolera'
'tol'
'tisch_'
'tige'
'tics_'
'tic'
'think'
'thanks_'
'testing_'
'territory_'
'territorial_'
'terp'
'termin'
'terd'
'tentang_'
'tensi'
'tendency_'
'tena'
'tempt'
'tekt'
'technique'
'teach'
'tausende_'
'tausend'
'tauch'
'tau'
'tat_'
'tasks_'
'tariff'
'tari'
'talent'
'tal_'
'tackle_'
'tab'
'taaten_'
'systemische'
'systeme_'
'switch'
'sweise'
'surro'
'surprised_'
'surp'
'surge_'
'surely_'
'suppressi'
'supervision_'
'summe'
'suddenly_'
'sud'
'successfully_'
'subve'
'subsequent'
'stütz'
'stärkere'
'studi'
'strukturelle_'
'struck_'
'stress_'
'strengths_'
'strengthen_'
'stream'
'stre'
'strategisch'
'strain'
'stood_'
'stone_'
'stocks_'
'sting_'
'stimmt_'
'stick'
'stens_'
'stell'
'steiger'
'steigende_'
'stee'
'steck'
'steadily_'
'stattfinden'
'statistic'
'statement_'
'stande'
'stammt_'
'stam'
'stakes_'
'stake_'
'stagnieren'
'stagnation_'
'stagn'
'staff_'
'staat_'
'sste'
'ssions'
'ssin'
'sser'
'spora'
'spielt_'
'spezifische'
'speziell'
'species_'
'speak_'
'spark'
'sparen_'
'span'
'sorgt'
'soo'
'somewhat_'
'soared_'
'soa'
'small'
'slos'
'slo'
'slight'
'sive_'
'sitz'
'site'
'sis_'
'sio'
'simpl'
'signi'
'signalisier'
'signal_'
'signal'
'sicherer_'
'sicher'
'shr'
'shortcoming'
'shor'
'ship'
'shin'
'shift'
'shel'
'shar'
'shape_'
'shap'
'shadow'
'sfun'
'serta_'
'sent_'
'sensible_'
'senken_'
'senk'
'send'
'sena'
'sema'
'selten_'
'sell'
'selecti'
'sel_'
'sektor'
'seja'
'seg'
'seemingly_'
'seek'
'secre'
'seats_'
'search_'
'sdi'
'scientist'
'schön'
'schätzungsweise_'
'schätzen_'
'schwierige'
'schwi'
'schwerwiegende'
'schweren_'
'schwache'
'schrittweise'
'schreck'
'schools_'
'schmerzhaft'
'schlicht'
'schlechte_'
'schlagen_'
'schla'
'schien_'
'scheinlich'
'schar'
'sc'
'sber'
'save'
'salah'
'sala'
'sai'
'sagte'
'sachen_'
'rückt'
'ränk'
'rvati'
'rupt'
'ruh'
'rud'
'ruck'
'rtung'
'rtige'
'rte_'
'roots_'
'rodukt'
'roa'
'ro_'
'rno'
'rliche'
'rlei_'
'rle'
'rka'
'rival_'
'rity_'
'riti'
'rin_'
'riesige'
'richten_'
'rian'
'rgen'
'rf_'
'revol'
'revive'
'review_'
'reverse_'
'rever'
'reta'
'restrict'
'resse'
'responsibilities_'
'responses_'
'reso'
'resid'
'researchers_'
'request'
'represent'
'repe'
'rene'
'rende'
'remo'
'remarkable_'
'rema'
'reluctant_'
'religiöse_'
'religi'
'reli'
'reject_'
'reise'
'reiche_'
'regulator'
'regiert_'
'regard'
'refr'
'reduziert_'
'redit'
'recognition_'
'recip'
'rechtliche_'
'rechne'
'receives_'
'rebalancing_'
'reba'
'rca'
'rben'
'rategie'
'rass'
'rapide'
'rant_'
'ranging_'
'ramm'
'rah'
'raci'
'rachte'
'question'
'quen'
'quate'
'quanti'
'qualifizierte_'
'qualifi'
'puts_'
'pushed_'
'pull'
'pul'
'publish'
'public'
'pti'
'psycholog'
'präsident'
'präsentier'
'protests_'
'protest_'
'protektionistische'
'prose'
'proliferat'
'prohibit'
'programmen_'
'professor_'
'prof'
'produkt'
'prod'
'proclaimed_'
'procedures_'
'proc'
'privilege'
'privati'
'prisoners_'
'princ'
'primarily_'
'preventing_'
'prevail_'
'preva'
'preserve'
'prese'
'presc'
'preca'
'praktische_'
'ppo'
'postpone'
'posi'
'portray'
'populistische'
'polnische'
'polariz'
'poi'
'pling_'
'pli'
'ple_'
'plat'
'planned_'
'pir'
'picture_'
'phä'
'phor'
'pheri'
'pher'
'phenomen'
'petani_'
'permit'
'perma'
'perlu_'
'period'
'perform'
'pens'
'penge'
'penduduk_'
'pendidikan_'
'pen_'
'pembe'
'peline'
'peacekeeping_'
'peacefully_'
'pea'
'passt'
'passing_'
'passieren_'
'parungen_'
'partei_'
'parlamentarische'
'parents_'
'paradox'
'paper_'
'pain_'
'overr'
'overlooked_'
'overha'
'overe'
'outst'
'outsourc'
'our'
'ound_'
'ost_'
'osit'
'ose_'
'orti'
'orte'
'ort_'
'orr'
'orn'
'ories_'
'organisation_'
'ored_'
'ordnete'
'opposed_'
'oppose_'
'opi'
'onto_'
'one'
'onal'
'omin'
'olve'
'oka'
'ohl_'
'ogenen_'
'offset_'
'offs'
'office'
'offensichtliche'
'odu'
'odd'
'obtain'
'observe'
'oblig'
'obat'
'nützlich_'
'näher'
'nzi'
'nya'
'nutzt'
'numer'
'nuklearen_'
'ntw'
'ntly_'
'nste'
'nowadays_'
'notwendige_'
'notw'
'noti'
'nos'
'normal'
'nommen_'
'nob'
'nnt'
'nn'
'nkungen_'
'nische_'
'nig'
'nießer'
'niemals_'
'nh'
'ngn'
'ngka'
'nger'
'ngel'
'nge_'
'neur'
'nehme'
'negotiate_'
'neglect'
'negativen_'
'nde'
'nci'
'nc'
'natur'
'nativ'
'naive'
'nahm'
'nah'
'nachhaltigen_'
'nachd'
'möglichkeiten_'
'märkten_'
'mächtigen_'
'mutual'
'muta'
'muslimische_'
'mun'
'multinational'
'mpo'
'moved_'
'move'
'mortgages_'
'moralischen_'
'moral'
'mone'
'momentum_'
'modi'
'moderniz'
'modell'
'mn'
'mittleren_'
'mittlere'
'mitglied'
'mistake'
'missions_'
'misleading_'
'mischen_'
'mill'
'militärisch'
'merit'
'meny'
'mentier'
'mentally_'
'mengha'
'mengen'
'memu'
'meinte'
'mee'
'medicine_'
'media'
'mean'
'mathemati'
'masih_'
'masalah_'
'masa_'
'marriage_'
'markier'
'mari'
'manufacture'
'mani'
'mangel'
'manager'
'mainstream_'
'main'
'machten_'
'lück'
'lös'
'läuft_'
'ländische'
'lu_'
'loyalty_'
'loy'
'love_'
'loud'
'loser'
'lor'
'loose_'
'looking_'
'logis'
'logical_'
'locke'
'local'
'lle'
'literat'
'litera'
'lip'
'lion'
'links_'
'linked_'
'linea'
'lind'
'likelihood_'
'like'
'light'
'lift_'
'ley_'
'lever'
'levan'
'letzte'
'lett'
'lent'
'lend'
'lema'
'leiten_'
'leiden_'
'leiden'
'leid'
'leichte'
'leaves_'
'learning_'
'leak'
'lautet_'
'laureate'
'langjährigen_'
'langfristige'
'langem_'
'lands_'
'lam'
'lacks_'
'künftige'
'kühne'
'kämpf'
'kä'
'kut'
'kurzfristige_'
'kulturelle'
'kua'
'ktri'
'ktor'
'ktionen_'
'ktion'
'ksi'
'kredit'
'kostspielige'
'koordinier'
'kontrolliert_'
'kontrollieren_'
'kontrolle'
'kont'
'konk'
'komplett'
'kolo'
'kollektiven_'
'kol'
'kohlenstoffarme'
'knappe'
'klär'
'klug'
'klu'
'klinisch'
'klima'
'kis'
'king'
'kilo'
'killing_'
'keu'
'kete'
'kese'
'kepe'
'kepada'
'kenn'
'kemu'
'keen_'
'kator'
'kapitalistische'
'kapazität'
'kanischen_'
'kanis'
'jüngste_'
'jüngere'
'jährlichen_'
'jährliche_'
'jährigen_'
'junge_'
'jung'
'jun'
'judgment'
'joined_'
'jeweils_'
'jene'
'jede'
'jang'
'jamin'
'jalan'
'jah'
'jadi'
'izi'
'ivi'
'ität'
'ittel_'
'ith_'
'itari'
'israelische_'
'isolate'
'islamistische'
'isieren_'
'ish'
'isches_'
'isch'
'irn'
'irgendwann_'
'irat'
'irakische'
'iously_'
'ious_'
'involve'
'invit'
'investing_'
'investigat'
'investieren_'
'inva'
'inu'
'intolera'
'intervene_'
'interna'
'interi'
'interessiert'
'interessen_'
'interess'
'intention'
'intent_'
'intensive'
'intensif'
'intell'
'integrati'
'integra'
'insurgents_'
'insula'
'instru'
'insta'
'inspired_'
'inso'
'insecurity_'
'inse'
'initiated_'
'initi'
'inig'
'inha'
'informal_'
'influence'
'infectious_'
'inf'
'ines_'
'iner'
'indlich'
'indische'
'indicat'
'inder'
'incu'
'incor'
'inclusi'
'incident_'
'inci'
'improve'
'implied_'
'imperfect'
'immt_'
'immense'
'imag'
'illiberal'
'ilit'
'ili'
'ild'
'iki'
'igung_'
'igat'
'ießen_'
'ieß'
'ierte'
'ielt'
'iegs'
'ieden_'
'iede'
'iding_'
'ident'
'ideal'
'ida'
'icul'
'ichts'
'ice_'
'ibe'
'iation'
'iable_'
'höre'
'höchsten_'
'höchste'
'hängt_'
'hydro'
'hundert_'
'hun'
'humanitäre'
'hub'
'hte_'
'houses_'
'hostage'
'host'
'hospital_'
'hore_'
'homes_'
'hoffen_'
'hob'
'hn'
'historische'
'hingegen_'
'hilfreich_'
'hija'
'hic'
'hervorge'
'herge'
'hens'
'hende'
'heit'
'heim'
'heed_'
'hedge'
'heads_'
'headed_'
'hea'
'hbar'
'hazard'
'hate_'
'hasis'
'hart'
'hari_'
'happens_'
'haltung_'
'hak_'
'haber'
'hab'
'günstige'
'gäng'
'guter_'
'guided_'
'guide_'
'gui'
'grün'
'größere'
'größ'
'grundlegend_'
'großes_'
'graphi'
'grap'
'governed_'
'gone_'
'gog'
'gnos'
'gne'
'glo'
'glaube_'
'girl'
'ginge'
'gig'
'gier'
'giant_'
'gian'
'gez'
'gewöhnliche'
'gewöhn'
'gewährt'
'gewo'
'gewisse_'
'gewachsen_'
'geta'
'gesunken_'
'gesundheit'
'gesellschaftliche_'
'geschwächt_'
'geschie'
'geschichte_'
'gerü'
'gert'
'geringfügig'
'geringe'
'gerechter'
'gerecht_'
'gep'
'geopolitische'
'genügend_'
'genu'
'genom'
'geno'
'general'
'gene'
'gemein'
'gelingt_'
'geleistet_'
'gelassen_'
'geistigen_'
'gehandelt_'
'gefäl'
'gefährdet_'
'gefährden_'
'gefolgt_'
'geei'
'gebun'
'geboren'
'gebe'
'garantiert'
'gang'
'führe'
'fühlen_'
'füh'
'fähigkeit_'
'fähige'
'funktionier'
'funde'
'fundamentally_'
'fundamentalis'
'fts'
'früher_'
'frustr'
'friedliche'
'freiheit_'
'fraction_'
'foundations_'
'fou'
'fossilen_'
'formulierte_'
'forgo'
'forge'
'forcing_'
'followers_'
'folgenden_'
'folgen'
'folg'
'fol'
'focusing_'
'flight'
'flich'
'flexible_'
'flag'
'find'
'fill_'
'fewer_'
'festge'
'fer_'
'fellow_'
'feindliche'
'federa'
'features_'
'fault'
'father_'
'fasci'
'fas'
'farming_'
'farm'
'faktor'
'facts_'
'factor'
'faction'
'facilities_'
'eßen_'
'eyes_'
'extreme'
'expressi'
'exporting_'
'explicit_'
'expli'
'expert'
'expenditure_'
'existieren'
'existence_'
'excuse_'
'exc'
'examin'
'evolve'
'evolution'
'evil'
'eviden'
'every'
'eve'
'etsche'
'etis'
'esten_'
'esse'
'esen'
'erzw'
'erzielt'
'ery_'
'erwies_'
'erwa'
'erstell'
'ersi'
'ersetzen_'
'erseits_'
'erschw'
'erschien'
'erschein'
'erreichte_'
'erregend'
'err'
'ero'
'erneuerbare'
'ermu'
'erma'
'erleichter'
'erlangen_'
'erit'
'erhielt_'
'erha'
'ergeb'
'erga'
'erenden_'
'erc'
'eran'
'eradicat'
'equip'
'episode'
'epidemi'
'entu'
'entstanden_'
'entschied'
'entra'
'entit'
'entgegenzu'
'enta'
'enische'
'engen_'
'enforce'
'energi_'
'enemy_'
'endig'
'endg'
'endet_'
'encourage_'
'enc'
'enact'
'enabled_'
'employe'
'empl'
'emphasiz'
'emotional'
'emit'
'embark'
'emba'
'els_'
'elp'
'elin'
'eliminate_'
'elimin'
'eld'
'eks'
'ek'
'eit_'
'eisung'
'eistungen_'
'einzusetzen_'
'einzus'
'einzur'
'eintritt'
'einst'
'einige'
'einhei'
'einfl'
'einf'
'eindr'
'eindlich'
'einde'
'eile'
'eig'
'eif'
'ehme'
'egie'
'effektive_'
'effektiv_'
'effekt'
'edle'
'eding'
'edge_'
'eder'
'ect'
'echter'
'echten_'
'echt_'
'echt'
'ebene_'
'eas'
'earned_'
'e'
'düstere'
'dä'
'dynamisch'
'dwi'
'durchschnittliche'
'durchschnittlich_'
'durchführen_'
'dua_'
'drängen_'
'driver'
'dritten_'
'dritte_'
'dramatische'
'dramatically_'
'drama'
'downs_'
'doubts_'
'doubled_'
'donors_'
'donor_'
'doctors_'
'dly_'
'dli'
'dition'
'distribution_'
'distribut'
'distort'
'dispute_'
'displa'
'disma'
'diskriminier'
'disen'
'dise'
'discipline_'
'dischen_'
'dische'
'disastrous_'
'disagree'
'dire'
'dimension'
'dik'
'dih'
'dige'
'different'
'dieselben_'
'dier'
'dienen_'
'didn_'
'did'
'dictatorship_'
'diak'
'diagnose'
'devise'
'devaluation'
'determin'
'deteriorat'
'deter_'
'dete'
'destroyed_'
'desperate'
'design'
'described_'
'ders'
'deri'
'derartigen_'
'depressed_'
'depreciation_'
'depreciat'
'deposits_'
'depos'
'deployment'
'dependence_'
'depende'
'departments_'
'depan_'
'denke_'
'denk'
'demagog'
'delivering_'
'dehn'
'degr'
'deflation'
'definiti'
'defini'
'defend_'
'deepe'
'deemed_'
'decrease_'
'declined_'
'declaration_'
'decide'
'dea'
'daß_'
'dauert'
'date'
'dasselbe_'
'das'
'dangers_'
'dana_'
'damaged_'
'damag'
'cycle_'
'cy'
'customers_'
'cture'
'cted_'
'criteria_'
'credits_'
'creative_'
'crat'
'crack'
'counterparts_'
'count'
'correspond'
'correcti'
'correct_'
'correct'
'convers'
'convention'
'controlling_'
'controlled_'
'contribute'
'conta'
'consulta'
'constrain'
'constant'
'consolidation_'
'consistent_'
'considera'
'consi'
'conservati'
'confront_'
'condition_'
'concrete_'
'conclusion_'
'conclude_'
'concession'
'concentration_'
'component_'
'complicated_'
'comparative_'
'compact_'
'commodities_'
'comment'
'command_'
'combine'
'combat_'
'college'
'collateral'
'coe'
'classic'
'ckel'
'civi'
'circu'
'circle'
'cio'
'cide_'
'chung_'
'chuld'
'chtet_'
'chste'
'chronische'
'chrift'
'chri'
'chos'
'choos'
'chlag'
'chinesisch'
'chil'
'chemical'
'charisma'
'champion'
'chaft_'
'centuries_'
'centrali'
'cem'
'celebr'
'cel'
'catastrophe_'
'carr'
'careful_'
'capitalist_'
'cab'
'bürge'
'bücher'
'bü'
'bösartige'
'burn'
'bukan'
'bs_'
'brutale'
'brother'
'brief'
'breiter_'
'brea'
'brachten_'
'brach'
'borrowers_'
'bon_'
'bombe'
'bolster'
'bold_'
'bloße'
'blood'
'blocki'
'blich'
'black'
'bl'
'bit'
'bip'
'bing'
'billions_'
'bildung_'
'bildet_'
'big'
'bid_'
'bezüglich'
'bezieh'
'bewä'
'bewerte'
'bewegung_'
'bevorzugt'
'beträgt_'
'betrieben'
'betrachtete'
'bestätigen_'
'bestä'
'bestanden_'
'besorg'
'besi'
'beschrieb'
'berücksichtigen_'
'beruf'
'berkembang_'
'bericht'
'bereit'
'berda'
'berb'
'benutz'
'bemerkenswerte_'
'bemerkenswert_'
'belong'
'belo'
'belief'
'belieb'
'bekannte'
'beis'
'bein'
'behindert_'
'behi'
'beherrsch'
'behauptet_'
'beharr'
'behandelt_'
'beendet_'
'beeinflusst'
'bedroht_'
'bedeutend'
'beating'
'beans'
'bau'
'barer_'
'bankr'
'balanced_'
'baik_'
'bab'
'awareness_'
'av'
'außenpolitische'
'autom'
'author'
'ausüb'
'auswirk'
'aussehen_'
'ausger'
'ausfallen_'
'aufw'
'aufstrebende'
'aufs'
'aufl'
'aufgeg'
'auff'
'aufbauen_'
'atur'
'attract_'
'attend'
'attempted_'
'atr'
'ators_'
'atis'
'ations'
'asu'
'assure'
'asserti'
'asser'
'asp'
'asked_'
'ash_'
'ase_'
'artige'
'arte'
'art'
'arrogant_'
'arrive'
'ark_'
'arge'
'arat'
'appreciati'
'appr'
'application'
'appli'
'appe'
'apo'
'ape'
'anxiety_'
'ants_'
'antr'
'anticipat'
'ante_'
'antara_'
'annually_'
'anken'
'angs'
'angry_'
'angr'
'angese'
'angel'
'angeg'
'ange_'
'anese'
'anerkennen_'
'anderem_'
'analyst'
'anal'
'amt'
'amer'
'ament_'
'alts'
'ality_'
'alition'
'alik'
'alig'
'alien'
'ale'
'albeit_'
'akzept'
'aktivist'
'akibat'
'ais'
'ahl_'
'aha'
'agier'
'ager'
'agency_'
'affi'
'advocates_'
'advise'
'advi'
'adversar'
'advent'
'advantage'
'administ'
'addi'
'adapt'
'actual_'
'actors_'
'activists_'
'acted_'
'act'
'acht'
'accused_'
'accus'
'accurate'
'accumulati'
'accumulate'
'accounts_'
'accounting_'
'accord_'
'accomplished_'
'accomp'
'accepting_'
'abzuw'
'abzusch'
'abzie'
'abstra'
'absti'
'absolut'
'abi'
'abhängen_'
'abd'
'aat'
'Zwar_'
'Zustimmung_'
'Zustand_'
'Zur_'
'Zionis'
'Zentrala'
'Zeits'
'Zeitr'
'Zeitalter_'
'Yemen_'
'Xi'
'Würden_'
'Wäre'
'Worse_'
'Woods_'
'Women_'
'Wohnungs'
'Wohlstands'
'Wohl_'
'Wirtschaft'
'Wind'
'Werts'
'Wertpapiere_'
'Wen_'
'Wat'
'Wachstumsr'
'Wachstumsm'
'Vorg'
'Voraus'
'Vollbeschäftigung_'
'Voll'
'Volk_'
'Vill'
'Viertel'
'Vier'
'Vielzahl_'
'Vertret'
'Vertrauens'
'Verständnis_'
'Versicherungen_'
'Vern'
'Vermögenswerten_'
'Verha'
'Verf'
'Verbre'
'Verbrauch'
'Verbesserungen_'
'Vera'
'Untu'
'Unser'
'Uns'
'Unglück'
'Under_'
'Umstrukturierung_'
'Umge'
'Umf'
'Ukrainian_'
'US'
'Tud'
'Tschech'
'Trump'
'Tro'
'Tric'
'Timo'
'Tig'
'Tiere'
'Ther'
'Terror'
'Term'
'Temperatur'
'Teilnahme_'
'Tan'
'Tahrir_'
'Tages_'
'TTIP_'
'Säu'
'Sym'
'Switzerland_'
'Sunni_'
'Störungen_'
'Stunden_'
'Studenten_'
'Straßen'
'Strateg'
'Stimm'
'Steuersenkungen_'
'Standpunkt'
'Stand'
'Stan'
'Stabilitäts_'
'Staatsa'
'Spielr'
'Special_'
'Sparp'
'Spani'
'Sommer'
'Soll'
'Soldat'
'Solche_'
'Slow'
'Skepti'
'Simbabwe_'
'Sim'
'Siege'
'Sicherheitsrat_'
'Sicherheitsrat'
'Sich'
'She'
'Shar'
'Service'
'Semi'
'Sek'
'Sei'
'Scotland_'
'Schwu'
'Schwa'
'Schut'
'Schuldner_'
'Schri'
'Schla'
'Sav'
'Sala'
'Saharan_'
'Saatgut'
'SS_'
'SP'
'SC'
'Rückzug'
'Rücks'
'Ruh'
'Rout'
'Rot'
'Ronald_'
'Rom'
'Riv'
'Richtlinien_'
'Richt'
'Rice_'
'Ric'
'Rev'
'Respekt_'
'Research'
'Repräsentanten'
'Report'
'Rent'
'Rein'
'Reichen_'
'Reduzierung_'
'Rechenschaft'
'Recently_'
'Recent_'
'Ras'
'RS_'
'Prüf'
'Präsidentschaftswahl'
'Prov'
'Prinzip_'
'Presiden'
'Positionen_'
'Populis'
'Polizei_'
'Planeten_'
'Philosoph'
'Peace_'
'Pau'
'Pat'
'Pas'
'Par'
'Palästinensern_'
'Palästin'
'Pak'
'Organis'
'Optimismus_'
'Opti'
'Operation'
'Offi'
'Offensi'
'Of'
'Nä'
'Niederlande'
'Niederlage_'
'Nichts_'
'Neua'
'Netz_'
'Nein_'
'Neh'
'Nationalis'
'Nation_'
'Namun_'
'Nam'
'Nachbar'
'NP_'
'NPT_'
'NGOs_'
'NA'
'Mä'
'My_'
'Muster_'
'Mugabe'
'Much_'
'Moskau'
'Mord'
'Modern'
'Modelle_'
'Modell'
'Mittelpunkt_'
'Mitt'
'Mitgliedsländern_'
'Mitglieds'
'Mitglied_'
'Missbrauch_'
'Miss'
'Mini'
'Milli'
'Militar'
'Micro'
'Michael_'
'Mexican'
'Ment'
'Mee'
'Mechanismen_'
'Mc'
'Maße_'
'Material'
'Mat'
'Mas'
'Marine_'
'Mao_'
'Mand'
'Manche_'
'Manage'
'Maha'
'Lä'
'Lohn_'
'Logik_'
'Liquidität_'
'Linke_'
'Life_'
'Liefer'
'Liber'
'Lib'
'Let_'
'Leon'
'Lektion_'
'Leistung_'
'Leider_'
'League_'
'Lau'
'Lan'
'LDP_'
'Körper'
'Kurz_'
'Kurs_'
'Kun'
'Kultur'
'Krugman_'
'Kos'
'Koo'
'Kontroverse'
'Kontakt'
'Konsumenten_'
'Konservativen_'
'Konkurrenz_'
'Komponente'
'Komplex'
'Kommunist'
'Kommenta'
'Komm'
'Kolumbien'
'Koalition_'
'Klasse'
'Khomeini'
'Ker'
'Kenn'
'Kategorie'
'Karr'
'Kapitalm'
'Kampf'
'Kal'
'Justiz'
'Just_'
'Joh'
'Jin'
'Jewish_'
'Januar_'
'James_'
'Jahrzehnts_'
'Jahrestag'
'Jahres'
'Islands_'
'Islamist'
'Islamischen_'
'Investitionsb'
'Intervention_'
'Intellektuelle'
'Instrument'
'Instabilität_'
'Insbesondere_'
'Innen'
'Inland'
'Infektion'
'Industries'
'Identität_'
'Ideal'
'IS_'
'IS'
'IC_'
'Hürde'
'Hö'
'Häuser'
'Hundert'
'Hun'
'Hu_'
'Hom'
'Hochschul'
'Hind'
'Hilfsm'
'Hilfs'
'Hersteller_'
'Herrsche'
'Hegemonie_'
'Heb'
'Havel_'
'Handelsd'
'Hab'
'Gut'
'Gun'
'Gulf_'
'Guantánamo_'
'Gründ'
'Group_'
'Government_'
'Gordon_'
'God_'
'Goals_'
'Gleichgewicht_'
'Gewaltt'
'Gesundheitss'
'Gespräch'
'Geschlechter'
'Geri'
'Gene'
'Gemeinw'
'Geme'
'Gem'
'Gel'
'Gegner_'
'Geber'
'Gaull'
'Gandhi_'
'Gad'
'GEN'
'G20_'
'Fuku'
'Frühling'
'Friedman_'
'Friedensnobelpreis'
'Friedens_'
'Freiheits'
'Freihandels'
'Free_'
'Frag'
'Four'
'Fortschritt'
'Forme'
'Foreign_'
'Forderung_'
'Force'
'Fiskalp'
'Fischer'
'Fisch'
'Finanzinstitute_'
'Finanzinstitut'
'Finanzen_'
'Finanza'
'Fakten_'
'Fail'
'Extremisten_'
'Extrem'
'Expert'
'Evolution'
'Every_'
'Ev'
'Et'
'Erwägung'
'Erw'
'Erst'
'Ersch'
'Erklärungen_'
'Erk'
'Erfolgs'
'Erdoğan_'
'Entwicklungsst'
'Entschuldigung'
'Enron_'
'English_'
'Energien_'
'Emissions'
'Eliten_'
'Element'
'Eisen'
'Einwanderung'
'Einig'
'Einfa'
'Eines_'
'Eigentums'
'Effizienz_'
'Effektivität_'
'Effekte_'
'Ed'
'Economists_'
'Ear'
'Each_'
'EFSF_'
'Dä'
'Dutzend_'
'Durch'
'Drohung'
'Drei'
'Domini'
'Dollars_'
'Dokument'
'Div'
'Dim'
'Diktator'
'Differenz'
'Diese'
'Dic'
'Diagnose'
'Deutsche'
'Denken'
'Demonstranten_'
'Demokratis'
'Dema'
'Davo'
'Dauer_'
'Dat'
'Dam'
'Dal'
'Dadurch_'
'DS'
'Czech_'
'Cy'
'Crisis_'
'Crim'
'Cou'
'Corporation_'
'Coo'
'Conservative'
'Cong'
'Communi'
'Common'
'Cle'
'Civi'
'Citi'
'Christen'
'Cho'
'Charl'
'Char'
'Cham'
'Chairman_'
'Cam'
'CC'
'Bürger'
'Bündnis'
'Böse'
'Bulgaria_'
'Bud'
'Bruttoinlandsprodukt'
'Brown_'
'Brothers_'
'Bro'
'Brief'
'Bretton_'
'Brazilian_'
'Brasiliens_'
'Bos'
'Boris_'
'Boden_'
'Blick_'
'Bli'
'Bil'
'Bezahl'
'Bewertung'
'Beweis'
'Bestreb'
'Bestimmungen_'
'Bestandteil'
'Best'
'Bese'
'Beschr'
'Berichte'
'Bere'
'Berater_'
'Bemerk'
'Bek'
'Beha'
'Begr'
'Bedürfnisse'
'Beda'
'Beamte_'
'Batt'
'Bas'
'Bankr'
'Banglades'
'Ban_'
'Bak'
'Bac'
'BA'
'Av'
'Außenminister_'
'Austritt_'
'Ausl'
'Ausgabe'
'Augen'
'Aufwertung_'
'Aufnahme'
'Atomwaffen_'
'Atlantic_'
'Asiens_'
'Argumente_'
'Argument_'
'Arbeitsplatz'
'Arbeitsmarkt_'
'Arabischen_'
'Anwe'
'Anspruch_'
'Ansichten_'
'Ansch'
'Ander'
'Amt'
'Amerikanern_'
'Alternative'
'Alliance_'
'Alexander_'
'Alb'
'Aktivität_'
'Aktionäre'
'Aktionen_'
'Aktien_'
'Akte'
'Ah'
'Again'
'Action_'
'Acht_'
'Abwärts'
'Abschreckung_'
'Abschluss_'
'Abo'
'Able'
'Abbas_'
'AS'
'AI'
'? _'
';'
': "_'
'700_'
'42_'
'32'
'31_'
'29'
'26_'
'24'
'22_'
'2018_'
'1993_'
'1990s_'
'1985_'
'1980s_'
'1973_'
'1950_'
'1930er_'
'120_'
'.: _'
'... '
'-'
'%-_'
'$_'
'"._'
' –&'
' &#_'
'  _'
'„_'
'“ '
'–'
'ң'
'қ_'
'ін'
'і_'
'ю'
'ь_'
'ында'
'ші'
'ше'
'тт'
'сын'
'сти'
'со'
'ро'
'ри'
'р_'
'мо'
'кономи'
'ит'
'ин'
'ет'
'ем'
'да_'
'гі'
'го'
'бе'
'Т'
'ğ'
'üß'
'ütter'
'ütte'
'üte'
'üstungs'
'üsse'
'ürzung'
'ürf'
'üng'
'ündung_'
'ündig'
'ündete'
'ünden'
'ült'
'üllung'
'üllte'
'ülle'
'ühne'
'überz'
'überwältig'
'überprüf'
'übernahm'
'überlegt'
'überle'
'übergreifend'
'übergehend'
'überge'
'ötzlich'
'örtliche'
'örter'
'örde'
'öpfung'
'öcke'
'és'
'äßig_'
'ätzlich'
'ässlich_'
'ässig'
'äss'
'ärer_'
'änken'
'ängst'
'änglich_'
'ändl'
'ändische'
'ände_'
'änd'
'än'
'ähnliches_'
'ähnlichen_'
'ähe'
'äftigung'
'ädig'
'ächte'
'äc'
'Überwachungs'
'Übertrag'
'Übernahme_'
'Überlegen'
'Übereinkunft_'
'Öls'
'Ökosystem'
'Äthiopien_'
'Äqu'
'Änderung'
'»'
'·      '
'­'
'«_'
'züge'
'zöger'
'zykli'
'zy_'
'zwing'
'zweitgrößte'
'zweie'
'zwan'
'zuwe'
'zuw'
'zusätzliche'
'zuse'
'zuschl'
'zusammenh'
'zus'
'zurückzuf'
'zurückf'
'zunahm'
'zum'
'zukommen_'
'zuha'
'zufü'
'zophreni'
'zog_'
'zig'
'zept'
'zente'
'zel'
'zeitige'
'zeiten_'
'zehntelang'
'zed'
'zahlung_'
'you'
'ympi'
'yme'
'yen_'
'yed_'
'yal_'
'xo'
'xis'
'xio'
'xing_'
'würdigkeit'
'würdig'
'wünschenswert'
'wär'
'wung_'
'wunde'
'writing_'
'worten_'
'worte'
'worsen_'
'wora'
'wood'
'wol'
'wl'
'withstand_'
'with'
'wirkung'
'wirksame'
'wirkliche_'
'winne'
'wind_'
'will'
'wiesen_'
'widerspr'
'widerspiegelt_'
'wettbewerbsfähig'
'westliche'
'weste'
'wesen_'
'werts'
'wertige'
'werfe'
'wenigsten_'
'wen'
'weltweite'
'wellbeing_'
'well'
'weitreichende'
'weitgehend_'
'weitem_'
'wehr'
'weakness_'
'weakening_'
'weaken_'
'weake'
'waves_'
'watching_'
'warm'
'warf'
'wandeln'
'waiting_'
'wah'
'wagen'
'waffe'
'wachs'
'vy'
'votes_'
'vorw'
'vorteil'
'vorsieht_'
'vorsi'
'vorhandenen_'
'vorgeschlagene'
'vorgeb'
'vorg'
'vorang'
'vollz'
'vollständige_'
'volle_'
'voices_'
'vital'
'vita'
'viously_'
'violation'
'violat'
'vili'
'vig'
'viewed_'
'vielversprechend'
'vict'
'veto_'
'veröffentlich'
'verwunde'
'verwend'
'verweiger'
'verwand'
'verursachte'
'verträg'
'vertrete'
'vertie'
'verteilung'
'verteilt'
'versto'
'versprochen_'
'verspr'
'versorg'
'versicherung_'
'versi'
'verschwinden'
'verschre'
'verschm'
'verschieden_'
'verschieb'
'verri'
'verpflichtend'
'vernachlässig'
'vermögen_'
'vermeid'
'verm'
'verlässlich'
'verlängern_'
'verlorene'
'verliert_'
'verliehen_'
'verlie'
'verletzt'
'verleite'
'verlangt_'
'verlangsamt_'
'verlangsam'
'verl'
'verkörpert'
'verknüpft'
'verkehr'
'verheirat'
'vergessen_'
'verfü'
'verfolgten_'
'vereint'
'vereinbarung'
'vereinbart'
'verdreifach'
'verdoppelt_'
'verdien'
'verbrauch'
'verboten'
'verbl'
'verbesser'
'verabschiedet_'
'verabsch'
'venture'
'venti'
'veness_'
'velop'
'ved_'
'vant'
'valua'
'vai'
'vaccine'
'vaca'
'uzi'
'uz'
'uve'
'uum_'
'utt'
'utili'
'ust_'
'usr'
'usi_'
'usan'
'ursa'
'uropa'
'urning_'
'urge_'
'urg_'
'ured_'
'upte'
'uptc'
'ups'
'upgrad'
'unzu'
'unwilli'
'unweigerlich'
'unwa'
'unvo'
'unverzichtbar_'
'unus'
'untr'
'unterzeichnete'
'unterzeichnet_'
'unterstr'
'unterscheiden_'
'unterminier'
'untergräbt_'
'unruhige'
'unpopul'
'unmittelbare'
'university_'
'universelle'
'unha'
'unh'
'ungswe'
'ungss'
'ungsr'
'ungsge'
'ungleich'
'unfold'
'unequ'
'undu'
'unding'
'understands_'
'underpin'
'undere'
'uncha'
'unbest'
'unat'
'unal'
'umin'
'umgek'
'umgeb'
'umge'
'umfassendere'
'umfass'
'uma'
'ulu'
'ultur'
'ults_'
'ultra'
'ultat'
'ulen'
'uldn_'
'ulation'
'ulat'
'ukt'
'uk_'
'uj'
'uhan_'
'ugn'
'ufs'
'ufr'
'ufig'
'ufe'
'uerung_'
'uerl'
'uer_'
'ue'
'ude'
'ucht_'
'uc'
'uan'
'uage'
'türkischen_'
'türkische_'
'töte'
'tödliche_'
'täusch'
'täts'
'tätigkeit_'
'tänd'
'tzu'
'twa'
'turm'
'tung'
'tums'
'tuell'
'tuan_'
'tu_'
'ttla'
'ttet'
'tsunami_'
'trug'
'troubled_'
'trop'
'tripl'
'trigger_'
'trie'
'tric'
'tremendous'
'treas'
'travel_'
'travel'
'traue'
'traten_'
'trategie'
'trate'
'trat'
'transparente'
'transparent_'
'translate_'
'translat'
'transatlanti'
'transactions_'
'tragedy_'
'trafe'
'traf_'
'traditions_'
'traditionelle'
'track_'
'tourism'
'tour'
'toren_'
'tor_'
'toll_'
'tolerance_'
'tliche'
'tli'
'tl'
'tischer_'
'tische_'
'tir'
'tip'
'tine'
'tilt'
'tightening_'
'tig_'
'tide_'
'threshold'
'ther_'
'theo'
'thei'
'tha'
'teste'
'terung'
'teru'
'tert'
'terroristische_'
'terror'
'territoriale'
'terne'
'terla'
'tenu'
'tens_'
'tendenziell_'
'temptation_'
'temperature'
'tekn'
'tehen_'
'technologischen_'
'technologie'
'techni'
'teachers_'
'tche'
'tati'
'taten_'
'targeting_'
'tanta'
'tank'
'tang'
'tand_'
'tami'
'tality_'
'tali'
'taining_'
'tahu'
'taha'
'systemi'
'systematisch'
'systematically_'
'syrischen_'
'syrische_'
'symptom'
'symbol_'
'swo'
'sw'
'svolle'
'sver'
'suspicion_'
'survei'
'surrounded_'
'surprise_'
'surf'
'sure'
'suppos'
'suppl'
'superiority_'
'suicide_'
'suffic'
'sucht_'
'suche'
'successor_'
'successi'
'successes_'
'succeed'
'subsid'
'sub_'
'sua'
'stärk'
'ständl'
'ständig'
'sty'
'studier'
'stud'
'ströme'
'struggle'
'string'
'strikt'
'striking'
'strike_'
'stretch'
'strengthened_'
'streng_'
'strei'
'street_'
'strebt'
'streb'
'strategischen_'
'strange_'
'straightforward_'
'storm'
'stoppen_'
'stopp'
'ston'
'stolz'
'stliche'
'stische'
'stimulat'
'stimmung'
'stimmen_'
'stim'
'stills'
'stik'
'stieg_'
'steuerliche'
'sters'
'stenz'
'stelle'
'stehende'
'steer'
'staying_'
'stattdessen_'
'statistisch'
'starting_'
'starker_'
'stando'
'standen_'
'standar'
'stalt'
'stagnat'
'stabiler'
'staats'
'ssu'
'ssionen_'
'ssing_'
'ssig_'
'ssib'
'ssel'
'ssa'
'squeeze'
'squa'
'spät_'
'spur_'
'spra'
'spon'
'spoke'
'spiral_'
'spir'
'spiel_'
'spiegelt_'
'sphär'
'sper'
'spend'
'spektakulär'
'spek'
'speed_'
'speculati'
'speculat'
'specifi'
'specialize'
'spalt'
'sozial'
'sorgfältige'
'sore'
'sophisticated_'
'somewhere_'
'some'
'solv'
'solusi_'
'sold_'
'sold'
'solcher_'
'solar_'
'soaring_'
'smug'
'smooth'
'smok'
'smart'
'slower_'
'skra'
'skill_'
'skeptic'
'situation'
'sistem_'
'sionen_'
'sional'
'sinken_'
'simultaneous'
'signifikante'
'sig'
'sien'
'side'
'sichtlich_'
'sicherste'
'sicherheit'
'sichere'
'sibl'
'shot'
'shortfall_'
'shock'
'shing_'
'sheet_'
'shares_'
'shareholders_'
'shal'
'sgr'
'sexual_'
'sexual'
'setzungen_'
'settlement_'
'seti'
'sess'
'serves_'
'seri'
'seque'
'sepe'
'separati'
'separate'
'sensi'
'sende'
'selu'
'selling_'
'select'
'sela'
'sekitar'
'seize'
'seiten'
'sehingga_'
'sectarian_'
'seat_'
'season'
'scrutin'
'schäd'
'schwäche'
'schwind'
'schwieriger_'
'schwerer_'
'schwei'
'schwank'
'schwache_'
'schwach_'
'schutz_'
'schulden'
'schs'
'schreiten'
'schreibe'
'schneller_'
'schnelle'
'schne'
'schläg'
'schlu'
'schlimmsten_'
'schlechter_'
'schlechte'
'schlag_'
'schienen_'
'schie'
'schic'
'scheitern'
'scheiden'
'schaften_'
'schaff'
'schadet'
'schaden_'
'scene'
'scare'
'sba'
'saus'
'saudi'
'sant'
'sanit'
'sangat_'
'sanc'
'sames_'
'sake'
'sag'
'sache'
'sa_'
'rüm'
'rühr'
'röme_'
'räs'
'ränkung'
'rän'
'räge_'
'räge'
'rulers_'
'ruch'
'rtu'
'rts'
'rtion'
'rtete_'
'rse_'
'rren'
'rre'
'rov'
'routin'
'rose_'
'ront'
'roman'
'roll'
'rol'
'rohstoff'
'roducti'
'robust'
'roads_'
'rli'
'rkt_'
'rkenn'
'ritten_'
'riskier'
'riskante'
'rising'
'rischen_'
'rische_'
'ringe'
'ring'
'riment'
'rigen_'
'rige'
'rift_'
'riesigen_'
'rie_'
'richtete'
'rice_'
'riat'
'rh'
'rgi'
'rgan'
'rfe'
'reviv'
'revis'
'rette'
'reten_'
'resum'
'resultierende'
'restraint'
'ressourcen_'
'responded_'
'respecti'
'resolved_'
'resolu'
'residents_'
'resembl'
'reproducti'
'repressive'
'repress'
'representation'
'repeated_'
'repay_'
'repair_'
'renewed_'
'render_'
'rend'
'remove_'
'remote_'
'reminiscent_'
'remind'
'relying_'
'relies_'
'relevan'
'rejecti'
'reinv'
'reint'
'reinforce_'
'reine'
'reif'
'reichsten_'
'reibung'
'rei_'
'registr'
'regionaler_'
'regio'
'regierung_'
'regelmäßig'
'regain_'
'refuse_'
'reflection'
'reflecting_'
'redistribution_'
'reden_'
'recruit'
'recoveri'
'recons'
'reconcile'
'reconc'
'recken'
'rechts'
'rechtliche'
'rechtfertig'
'receiving_'
'recap'
'recall'
'rebuil'
'rebt'
'reasoning_'
'reasonabl'
'realist'
'reakti'
'rds_'
'rdier'
'ratus'
'ratif'
'rate'
'rare_'
'rare'
'rape'
'rant'
'rans'
'rance'
'ral'
'ragt_'
'ragend'
'radikale_'
'radikale'
'quot_'
'quis'
'quest'
'ques_'
'quell'
'qualities_'
'qualitativ'
'qualified_'
'put'
'pursuing_'
'purs'
'pure'
'punishment'
'pundits_'
'publik_'
'pts_'
'pter'
'psychi'
'prägt'
'pruch'
'prozesse'
'prox'
'provinc'
'prov'
'protesti'
'protest'
'prosperous_'
'propose'
'proper_'
'prope'
'prompt'
'promoting_'
'promises_'
'prominent'
'prolonged_'
'progressive_'
'programm'
'profit'
'profil'
'professionals_'
'profession'
'produzierende'
'produzieren_'
'produktiver'
'produces_'
'process'
'proceed'
'probab'
'prize'
'privatization'
'prison_'
'prise_'
'priorities_'
'preventi'
'prevented_'
'presu'
'presse'
'press'
'prepare'
'prepar'
'premature'
'preis_'
'preferr'
'predicti'
'predictab'
'predic'
'prechen_'
'precedent_'
'praktikable'
'pragmatische'
'practical'
'practi'
'ppu'
'potenziellen_'
'potenziell_'
'posse'
'positiver'
'positive'
'position'
'port_'
'populär'
'populari'
'pons'
'poly'
'pollution_'
'politiker_'
'politici'
'pointed_'
'plötzlich_'
'plä'
'pluralist'
'plum'
'plenty_'
'plausible_'
'plane'
'pipeline_'
'piece'
'pid_'
'physician'
'physic'
'phy'
'phrase_'
'phob'
'philosopher'
'phem'
'phas'
'pfleg'
'perusahaan_'
'pertan'
'persönliche_'
'personen_'
'permitted_'
'permit_'
'perja'
'perfect_'
'perf'
'peny'
'penda'
'penalt'
'pek'
'patterns_'
'patient_'
'patent'
'patan_'
'pat_'
'partnerships_'
'partnership_'
'partisan'
'participate_'
'participat'
'participant'
'partei'
'paren'
'parallel'
'pant'
'pana'
'palästinensische_'
'package_'
'pack'
'pac'
'oy'
'oxid'
'overwhelmingly_'
'overwhelming_'
'overw'
'outs_'
'outs'
'outlook'
'outf'
'outbreak_'
'otte'
'otin'
'otic_'
'oss_'
'oso'
'osis_'
'orou'
'ormen_'
'orisch'
'orientierte_'
'orientiert'
'organisiert_'
'organisationen_'
'orderly_'
'ordentlich'
'orde'
'optimism_'
'optimale'
'oppo'
'opin'
'operieren_'
'operate'
'opera'
'opening'
'opened_'
'ook'
'ood_'
'onso'
'online_'
'onist'
'onisch'
'onier'
'onia_'
'oner'
'onen'
'onat'
'omen'
'olut'
'olt'
'olle'
'olla'
'olic'
'olat'
'okation'
'ois'
'ogi'
'offiziell_'
'officers_'
'offer'
'offenbar_'
'ocit'
'ocean'
'occurr'
'occa'
'object_'
'obesity_'
'obersten_'
'oberste'
'oberh'
'nüpf'
'nöt'
'nächstes_'
'nve'
'ntr'
'ntit'
'ntif'
'nstr'
'nstl'
'nsta'
'nson_'
'nses_'
'nsen'
'nsa'
'now'
'novel_'
'note_'
'norms_'
'normali'
'normalen_'
'none_'
'noi'
'nnung_'
'nnst'
'nning'
'nne'
'nna'
'nkle'
'nker'
'nji'
'nj'
'niv'
'nite'
'nissen_'
'nisch_'
'nien_'
'niedrige_'
'nial'
'ngt'
'ngkin'
'nghai_'
'ngg'
'ngert'
'nga'
'nfa'
'newspapers_'
'newly_'
'nesi'
'ners_'
'nents'
'nente'
'nem'
'neighborhood'
'nehm'
'negotiator'
'negotiati'
'negeri_'
'nds'
'ndlu'
'ndie'
'ndet'
'ndere'
'nden'
'ndel'
'ndal'
'nchi'
'nav'
'nationalistisch'
'nationalist_'
'nationalist'
'nationalism_'
'nata'
'nasty_'
'narrative'
'nahezu_'
'nab'
'mögliche'
'mög'
'möchte_'
'männ'
'mäh'
'mächtig'
'myst'
'muti'
'mute'
'muscle'
'murder'
'mung_'
'mung'
'multiplie'
'multipl'
'multilateralen_'
'mpti'
'mploy'
'movie'
'mounta'
'motor'
'motivate'
'mother_'
'mopolit'
'monopoly_'
'monopol'
'moderne'
'moderat'
'mod'
'mobiliz'
'mobilisier'
'mob'
'mmung_'
'mmu'
'mmt_'
'mmer_'
'mme_'
'mlich'
'mix'
'mitigat'
'mite'
'mistake_'
'mist'
'misch'
'miracle_'
'minut'
'minist'
'minimum_'
'minimize'
'minimal'
'mindestens_'
'minded_'
'minati'
'mili'
'milder'
'midst_'
'mic_'
'mic'
'method_'
'meter'
'messen'
'mesi'
'mes_'
'merupakan_'
'merg'
'mere'
'menun'
'mens'
'mengg'
'mene_'
'mendapat'
'memory_'
'memiliki_'
'memi'
'meme'
'member'
'melak'
'meiste'
'mein_'
'meetings_'
'medication'
'mechanismen_'
'md'
'mble'
'maßgeblich'
'maße'
'maximize_'
'maxim'
'mauer'
'math_'
'material'
'masyarakat_'
'maste'
'markt_'
'marks_'
'marketi'
'mar_'
'map_'
'manner_'
'mann'
'manipulation'
'mangelnde_'
'mancher_'
'managers_'
'male_'
'mad'
'lö'
'lär'
'läng'
'ländlich'
'lw'
'lungs'
'lungen_'
'luk'
'lua'
'ltig'
'lso'
'lowering_'
'lot'
'loss'
'looming_'
'longe'
'lokal_'
'logie'
'location'
'loan_'
'llt_'
'lls'
'lling_'
'ller_'
'lkan_'
'lized_'
'lization_'
'litä'
'lity_'
'litik_'
'liti'
'listen'
'lisi'
'lischen_'
'liquid_'
'liquid'
'linke'
'link_'
'linie'
'lined'
'limiting_'
'limi'
'liegenden_'
'lichste'
'licher'
'liation'
'lian'
'liabilities_'
'lge_'
'lge'
'lese'
'leitet'
'leich'
'leib'
'leh'
'legislati'
'legislat'
'lear'
'lean'
'laya'
'launch_'
'latte'
'lation_'
'lateinamerikanischen_'
'latein'
'lase'
'las_'
'lare'
'lanjut'
'langer_'
'lami'
'lak'
'lain_'
'lain'
'laim'
'ladi'
'laborat'
'label'
'lab'
'künst'
'käufe'
'käm'
'ky_'
'kus'
'kurzfristigen_'
'kurz_'
'kurse'
'kurs'
'kund'
'kum_'
'ktur'
'ktiv'
'kta'
'kräft'
'kro'
'kritisiert_'
'kreis'
'kredite_'
'kratisch'
'kratie'
'krat'
'kraftwerk'
'kra'
'kot'
'konzentr'
'konz'
'kontrollierte'
'kontra'
'kontr'
'konom'
'komplizierter_'
'komplexe_'
'kommunistische_'
'kommerzielle'
'kommens'
'komitmen'
'kollektive'
'know'
'kna'
'klich'
'klasse'
'klarer'
'kkan_'
'kir'
'kinds_'
'kil'
'kette'
'keti'
'kelo'
'kela'
'kehrt'
'kee'
'kea'
'kationen_'
'kasi'
'kart'
'kann'
'kana'
'kai'
'jü'
'juta_'
'juri'
'jump'
'judiciar'
'ju_'
'jew'
'jenseits_'
'jenigen_'
'jeni'
'jemand_'
'jegliche_'
'jects_'
'jan'
'izont'
'iziert'
'ize'
'ivität'
'itution'
'ittl'
'itten_'
'ittel'
'its'
'itors_'
'itis'
'itert'
'itant'
'istische_'
'istenc'
'isten'
'iste'
'issu'
'ison_'
'isol'
'ism'
'island'
'islamische_'
'isen_'
'ise'
'irres'
'irrational'
'irr'
'iro'
'irk'
'irische'
'inward_'
'involve_'
'invest'
'invad'
'interventions_'
'internet'
'internationales_'
'intermedia'
'interested_'
'intere'
'intercon'
'interact'
'intensiv'
'intense'
'intellektuelle'
'integrier'
'insurgen'
'insure'
'insufficient_'
'insu'
'instruments_'
'instrument_'
'institutionen_'
'institutionellen_'
'institu'
'instance'
'instabil'
'inst'
'insisted_'
'innovative'
'innenpolitische'
'innen'
'inm'
'inkom'
'inject'
'inj'
'inhab'
'inglich'
'ingin_'
'inge'
'infra'
'informier'
'informed_'
'inferior'
'inevitably_'
'iness'
'inert'
'ineffi'
'industrielle'
'industrializ'
'indirect'
'indicators_'
'incons'
'incapa'
'inat'
'inanzi'
'inacti'
'importe'
'implizi'
'impedi'
'impede'
'imminent_'
'immig'
'imit'
'ime'
'imba'
'imagine_'
'imagina'
'ils_'
'iling_'
'ildung_'
'ilde'
'ike'
'ikan'
'ii'
'ihrerseits_'
'iha'
'igo'
'ignorieren_'
'iges'
'igert'
'igende'
'iga'
'ification_'
'ific'
'ifi'
'ießend'
'ierungs'
'ierende_'
'iere_'
'ier'
'ientier'
'iens_'
'ienc'
'ien'
'iefe'
'iedenheit_'
'ideologi'
'iden'
'ideale'
'icted_'
'icon_'
'ichtet'
'ichte'
'ichert'
'ibus'
'ibit'
'iah'
'hörig'
'hörde_'
'häufig'
'hyper'
'hung_'
'hung'
'hunderte_'
'hunderte'
'human'
'hs_'
'hre'
'hour_'
'hosp'
'hopes_'
'holt'
'holdings_'
'hochrangige'
'hochgradig_'
'hochentwickelte'
'hnte'
'hnen'
'hne'
'hn_'
'hmi'
'hly_'
'hler'
'hlen'
'hle_'
'hl_'
'hitt'
'hip_'
'hip'
'hinzu'
'hinwe'
'high'
'hidden_'
'het_'
'het'
'hervorruf'
'herun'
'herstell'
'herself_'
'heroi'
'hero'
'hered_'
'herbeizuführen_'
'herausge'
'hensweise_'
'hence_'
'hemm'
'heli'
'height'
'heid_'
'hegemon'
'heb'
'hearing_'
'headlines_'
'hav'
'haushaltspolitische'
'hause'
'hau'
'harsh_'
'hars'
'harg'
'handel_'
'hadi'
'hack'
'günstig'
'gültig'
'gä'
'gut'
'gungen_'
'guaranteed_'
'guarant'
'gste'
'grundsätzlich'
'grundlegender'
'großa'
'groß'
'grou'
'grid'
'gres'
'grenz'
'greifende_'
'greifende'
'gration'
'granted_'
'gramm'
'gradua'
'grade_'
'governor_'
'got_'
'got'
'gnen_'
'glor'
'globally_'
'globalisier'
'globaler_'
'glich_'
'gli'
'gleichermaßen_'
'glei'
'glaubwürdig'
'glan'
'gis'
'gipfel'
'giga'
'gie_'
'gha'
'gga_'
'gewähr'
'gewählte_'
'gewählte'
'gewisses_'
'gewichts'
'gewicht_'
'gewa'
'getting_'
'getre'
'getra'
'geti'
'geteilt'
'gesu'
'gestützt'
'gesto'
'gesetzlich'
'gesenkt_'
'gesellschaften_'
'geschützt'
'gescheiterte'
'gesche'
'geschaff'
'gers'
'geringen_'
'gerecht'
'geplante'
'geordnet'
'geographic'
'genz_'
'genie'
'genheit_'
'genetische_'
'geneti'
'gence'
'genannt_'
'gemessen'
'gement_'
'gemeinsamer_'
'geli'
'geleitete'
'gelei'
'gelegen'
'gelangt'
'gela'
'geiz'
'gei'
'geho'
'geha'
'gegründet'
'gegenseitig'
'geführte'
'gefühl'
'gefördert'
'gefährlicher_'
'gefährlich'
'gefä'
'gefunden_'
'gefor'
'gefangen'
'gebühr'
'gebra'
'gebnisse'
'gebildet'
'gebiet'
'garette'
'garc'
'garantie'
'ganze'
'gans_'
'galt_'
'gal_'
'gabe_'
'fürchten_'
'fünft'
'fünf'
'führer_'
'fühlt'
'förderung_'
'fällen_'
'fäll'
'fähig_'
'fäh'
'futures_'
'funktion'
'functions_'
'functioning_'
'function'
'fueling_'
'ftung_'
'ftige_'
'früh'
'frustrated_'
'fronts_'
'friendly_'
'frequen'
'freier_'
'fragment'
'fragile_'
'fr'
'fourt'
'foster_'
'fosil_'
'fos'
'fortun'
'fortschr'
'forth'
'fortgesetzte'
'fortge'
'forschung_'
'formelle'
'formed_'
'ford_'
'foo'
'follow'
'folgt_'
'folger'
'folgender'
'flowing_'
'flourish'
'florier'
'flood_'
'fließen'
'flexib'
'flee'
'fizierung'
'fiz'
'fixe'
'fix_'
'fiskalische'
'finite'
'fini'
'financi'
'finances_'
'fill'
'fight'
'fig'
'fift'
'fici'
'fh'
'ffn'
'ffizie'
'ffi'
'ffekt'
'festi'
'festges'
'festgelegten_'
'fes'
'fers'
'feren'
'fend'
'feiern_'
'fehler'
'fec'
'feasib'
'fea'
'favori'
'fare'
'fang'
'fanden_'
'famili'
'fam'
'falschen_'
'falsche_'
'falle'
'fakt'
'fak'
'faire_'
'fair'
'fail'
'fahren'
'fache_'
'fac'
'extract'
'extern'
'extensive'
'ext_'
'exploration_'
'exploit_'
'expert_'
'expa'
'exh'
'exer'
'execut'
'exclude'
'excl'
'excess'
'exception'
'exceed_'
'eventual_'
'eval'
'eutung'
'eute'
'eut'
'europäische'
'eum_'
'eug'
'eue'
'etzung_'
'etzte'
'etzen_'
'ethical_'
'ethe'
'estate_'
'essor'
'ession'
'essen'
'ese_'
'esar'
'eröffnet'
'erzi'
'erzeugen_'
'erweitert'
'erwei'
'erweck'
'erwartung'
'erw'
'erv'
'erungs'
'erungen_'
'ertet_'
'erstreckt'
'erspar'
'ersetzt_'
'erschaf'
'errichtet'
'erri'
'erra'
'ernst'
'erneute'
'ermi'
'erliche'
'erlebt_'
'erlasse'
'erlangt'
'erklärten_'
'erkennt'
'erkennbar'
'erja'
'erinnert'
'erhöhte'
'erhö'
'erhält_'
'erhol'
'ergänzen'
'ergebnisse_'
'erfü'
'erforderliche'
'erfolgreiche_'
'erfahren_'
'erfa'
'erf'
'eres_'
'ereign'
'ere'
'erce_'
'equi'
'epidemic_'
'ep_'
'enu'
'entwi'
'entsteh'
'entsta'
'entsprechen_'
'entspr'
'entse'
'entrepreneurs'
'entre'
'entli'
'entk'
'enti'
'enthalten'
'enth_'
'entgegen_'
'entgegen'
'entered_'
'enten'
'entative'
'entail'
'ensu'
'enorme'
'enorm_'
'enm'
'enli'
'enl'
'enko'
'enhanced_'
'enhanc'
'engere'
'enger'
'engagier'
'enduring_'
'endes_'
'ence'
'ena_'
'empir'
'emotions_'
'emo'
'emm'
'emen'
'eme'
'embrace'
'embod'
'ells'
'ellite'
'eliminating_'
'elf_'
'elevat'
'elektr'
'electron'
'eld_'
'ekt_'
'eiter_'
'einzut'
'einun'
'einstell'
'einnehmen'
'einm'
'einigt'
'einherg'
'einheitliche'
'einger'
'eingehen'
'eingef'
'einfüh'
'einbe'
'eim'
'eign'
'eifen'
'eidet_'
'eiden'
'eicht_'
'eichen_'
'eibung_'
'ehlung'
'eha'
'egr'
'egg'
'egel'
'effizienz_'
'effi'
'effektiver_'
'effekt_'
'ee_'
'eds'
'edict'
'ede'
'ecti'
'ect_'
'echende'
'ec'
'ebene'
'eben'
'east'
'eager_'
'dürft'
'dynami'
'dy_'
'dura'
'dul'
'duc'
'dua'
'drücke'
'dru'
'dringen'
'drew_'
'dream'
'drawn_'
'dran'
'doub'
'dot'
'dorthin_'
'doom'
'donat'
'dominat'
'domi'
'dom_'
'dog'
'documents_'
'document'
'dmen'
'dm'
'dliche'
'diverse_'
'distributed_'
'distress'
'distinguish_'
'distinct_'
'distant_'
'distance'
'diss'
'disrupt'
'dispe'
'dispa'
'disorders_'
'dismiss'
'diskutier'
'disk'
'disintegrati'
'discrimination_'
'discovered_'
'discourage'
'discou'
'discontent'
'direkte_'
'dir'
'diplomats_'
'diminish'
'dilemma_'
'dilakukan_'
'digun'
'dignit'
'digitale'
'digital_'
'dig_'
'dient'
'dien'
'dibandingkan_'
'dian_'
'dhist'
'devoted_'
'devo'
'device'
'devastating_'
'deva'
'deterrence_'
'deten'
'detaine'
'detailed_'
'det_'
'det'
'desto_'
'destin'
'destabilisier'
'desi'
'deserves_'
'deserv'
'desert'
'desc'
'derzeitige'
'derung'
'derselbe'
'derjenigen_'
'derive'
'derivative'
'deregulation_'
'derartiger_'
'depression_'
'depress'
'depr'
'deployed_'
'depl'
'dependent_'
'deo'
'demonstrations_'
'demonstrate'
'demograph'
'democratiz'
'demanded_'
'deliberat'
'deleveraging_'
'delegat'
'del_'
'defizite'
'define_'
'defensive'
'defending_'
'dedi'
'deckung_'
'decisively_'
'decisive_'
'decent_'
'debtor'
'debat'
'deals_'
'daya_'
'dauern'
'dati'
'daten_'
'date_'
'dangerously_'
'damalige_'
'damalige'
'dah'
'daf'
'custom'
'curtai'
'cure'
'culate'
'cts_'
'ctor'
'ctiv'
'crus'
'cruel_'
'crude_'
'cron'
'criticized_'
'criminal_'
'credible_'
'creati'
'crash_'
'craft_'
'cow'
'covert'
'courts_'
'court_'
'courage'
'couple_'
'countless_'
'counterp'
'costly_'
'correlat'
'coordinated_'
'converted_'
'contribution_'
'contri'
'contraction'
'contr'
'contin'
'conten'
'contemporary_'
'constructi'
'constituen'
'conso'
'consistently_'
'consideration_'
'connection_'
'connecti'
'connected'
'cong'
'confirmed_'
'confine'
'confe'
'concerning_'
'concentrate'
'computers_'
'compromis'
'comprise'
'complexity_'
'completely_'
'complaints_'
'complain'
'competen'
'compelling_'
'compara'
'communication_'
'committee'
'commit_'
'commission'
'commercial_'
'commentator'
'come'
'collectiv'
'coin'
'cohesion_'
'cohe'
'code_'
'code'
'coast_'
'closure'
'clinic'
'cles_'
'clause'
'class'
'clash_'
'claim'
'ckte'
'cks'
'cient'
'chteil'
'chte'
'chsel'
'chronic_'
'chm'
'chli'
'chest'
'cherung_'
'chemi'
'chem_'
'ched_'
'cheaper_'
'chea'
'chaue'
'chase_'
'characteri'
'character_'
'chant'
'chanismus_'
'challenging_'
'chall'
'chafte'
'centrist_'
'center'
'cent_'
'censorship_'
'cend'
'celebrate_'
'cea'
'cce'
'cati'
'cate'
'cataly'
'cars_'
'carrie'
'card'
'car_'
'captur'
'capitals_'
'capitali'
'capa'
'calm'
'bürokratis'
'burned_'
'bureaucrat'
'burden'
'bum'
'build'
'bud'
'buch'
'bte'
'bsi'
'bruchs_'
'brings_'
'bridge_'
'breakthrough'
'bound'
'bos'
'borrow_'
'borrow'
'born'
'bond'
'bomba'
'bomb'
'boards_'
'blockiert'
'blocked_'
'bloc'
'blie'
'blichkeit'
'blase_'
'blas'
'blam'
'bitter'
'bislang_'
'bische'
'bir'
'biologis'
'biolog'
'binding_'
'binden'
'bill'
'bilaterale'
'bezeichnen_'
'bezeichne'
'bezahl'
'bewusste'
'bewu'
'bewaffneten_'
'bewa'
'bevor'
'beträchtliche'
'betrug'
'betroffenen_'
'betroffen_'
'betreiben_'
'betreffen'
'betragen_'
'betont'
'beteiligt_'
'beteilig'
'besuchte'
'bestre'
'bestraft'
'bestehe'
'besseren_'
'bessere'
'besondere_'
'besondere'
'besie'
'beschädig'
'beschränken_'
'bescheiden'
'beschaff'
'besa'
'bes_'
'berücksichtig'
'berke'
'berge'
'bereits'
'bereich'
'beraten_'
'berada_'
'beobachte'
'bens'
'benig'
'benar_'
'bemerkenswerte'
'bem'
'belu'
'believ'
'beleg'
'belastet'
'bekräftig'
'behav'
'behauptete'
'begrüß'
'begriff'
'begleite'
'begangen'
'beenden_'
'beeindruckende'
'bedroh'
'bedienen_'
'bedeutsame'
'bedeutenden_'
'bedeutende_'
'beda'
'beauf'
'beantwortet'
'beant'
'beachte'
'bble_'
'bata'
'basierte'
'basi'
'bankruptcy_'
'ban_'
'ballo'
'bakar_'
'backl'
'bacco_'
'azin'
'avel'
'authori'
'auszuge'
'ausweiten'
'aussichten_'
'aussch'
'ausgleich'
'ausgesp'
'ausgeschlossen_'
'ausgesch'
'ausgerichtet'
'ausgehend'
'ausgehe'
'ausgeglichen'
'ausg'
'ausdrück'
'ausch'
'aul'
'aufst'
'aufr'
'aufn'
'aufges'
'aufgenommen_'
'aufgebaut'
'aufen_'
'aufe'
'aub'
'atzes_'
'attribut'
'attraktiv_'
'attractive_'
'attitude'
'atmosphere_'
'atisch'
'atel'
'aste'
'assung_'
'assumed_'
'associat'
'assassinat'
'assa'
'aspirations_'
'aspects_'
'asking_'
'asien'
'article'
'arrest'
'arrange'
'arm_'
'arly_'
'aring_'
'aries_'
'arie'
'arian'
'ares'
'are'
'ardi'
'archite'
'ara_'
'approximat'
'approv'
'appreciate'
'appoint'
'appease'
'anzupassen_'
'anzue'
'anzi'
'antik'
'antibiotics_'
'antib'
'answer'
'ansteigen_'
'anspr'
'ansehen_'
'anschließend'
'anscheinend_'
'anp'
'annu'
'ankurbel'
'anktionen_'
'anke'
'anische_'
'anische'
'animal_'
'ania_'
'ani_'
'anhaltend_'
'angi'
'anget'
'anges'
'angelegt'
'angefü'
'angef'
'angebot'
'angan_'
'anes'
'andin'
'anderweitig_'
'anden_'
'andauern'
'anda'
'anci'
'anbieten_'
'anat'
'anan'
'anak_'
'ample'
'amerikanische'
'ament'
'ambitions_'
'alternat'
'allocati'
'allo'
'alliances_'
'allgemein'
'alized_'
'alb'
'akzeptiert_'
'akte'
'akt_'
'akin'
'aker'
'aik'
'aid'
'ahr'
'ahmen_'
'ahlt'
'ago'
'agi'
'aggressive'
'agents_'
'agent'
'aganda'
'afts'
'afrikan'
'affung_'
'affordable_'
'affecti'
'advisers_'
'adopt'
'admir'
'aden'
'adem'
'acute'
'acu'
'acts_'
'actor_'
'acr'
'acqu'
'acknowledg'
'achte'
'achsen'
'accommodat'
'accessi'
'accelerate_'
'academic'
'abzielen'
'absolute_'
'abse'
'abolis'
'abo'
'abn'
'abha'
'abgesehen_'
'abandoning_'
'abandon_'
'Zyklen_'
'Zwischenzeit_'
'Zwangsv'
'Zwang'
'Zusammenhalt_'
'Zusa'
'Zurück'
'Zur'
'Zulass'
'Zuflu'
'Zivilisten_'
'Zinssatz'
'Zerstörung_'
'Zeichen_'
'Zahlungsaus'
'Yuk'
'Yugoslav'
'Yes_'
'Xinjiang_'
'Wählern_'
'Wur'
'Would_'
'Worte_'
'Wirtschaftswachstums'
'Wirtschaftss'
'Wirtschaftsn'
'Wirtschaftsb'
'Wirk'
'William'
'Wilders_'
'Wil'
'Widerspruch_'
'Wider'
'Who'
'Whether_'
'Whatever_'
'Wett'
'Westjordanland_'
'Westeuropa'
'Wesentliche'
'Wesen_'
'Werte'
'Wenig'
'Wende'
'Weltkrieg'
'Weltgesundheitsorganisation_'
'Welle_'
'Weis'
'Weil'
'Weigerung_'
'Wasserkr'
'Waren'
'Wandels_'
'Wahlkampf_'
'Wah'
'Wachstumss'
'Wachstumsrate_'
'WI'
'Vorw'
'Vorteil'
'Vorsitzende_'
'Vorsitzende'
'Vorsi'
'Vorm'
'Vorherrschaft_'
'Vorfa'
'Vorf'
'Vorbild_'
'Visionen_'
'Virus'
'Vielfa'
'Veröffentlichung'
'Verzögerung'
'Verzweif'
'Verz'
'Verwaltung_'
'Vertrags'
'Verteidigungsminister'
'Vert'
'Versagen_'
'Verlierern_'
'Verlauf'
'Verlangsamung_'
'Verkauf'
'Verhältnis'
'Verein'
'Verbrauchern_'
'Verbrauch_'
'Verbot_'
'Verbind'
'Verantwort'
'Uribe_'
'Urban'
'Unternehmer'
'Unternehmens_'
'Unterg'
'Unterfangen_'
'Unterdrückung_'
'Unsi'
'Unr'
'Unm'
'Unlike_'
'Universal'
'Ungleichgewichte_'
'Ungarn'
'Unf'
'Unabhängig_'
'Ul'
'Uganda'
'USD_'
'UC'
'Tür'
'Twitter_'
'Tusk'
'Turb'
'Tsunami_'
'Ts'
'Truppe'
'Tru'
'Trennung'
'Treib'
'Treasury_'
'Traum_'
'Transa'
'Tradi'
'Touris'
'Toleran'
'Tod'
'Tibet'
'Thro'
'Thin'
'Thatcher_'
'Test_'
'Terroran'
'Terror_'
'Tempo_'
'Telekommunikation'
'Techn'
'Team'
'Tausend'
'Tas'
'Tagesordnung'
'Tage'
'Taba'
'TPP_'
'Südost'
'Süden_'
'Süde'
'Südafrika'
'Syriza_'
'Symptom'
'Swi'
'Sustainable_'
'Suppo'
'Sunnis_'
'Summers_'
'Summe_'
'Suche_'
'Subsi'
'Stur'
'Studi'
'Stud'
'Struktur_'
'Strom'
'Stress'
'Stock'
'Stillstand_'
'Stil_'
'Stil'
'Stig'
'Steuerzahler'
'Steuerer'
'Stellvertreter'
'Stell'
'Statisti'
'Stamm'
'Stabilisierung'
'Staatss'
'Staatsbürger'
'Staat'
'Spor'
'Spitze_'
'Spend'
'Sparmaßnahmen_'
'Sparen'
'Sozialis'
'Sonn'
'Sometimes_'
'Solidarität_'
'Solidarity_'
'Solar'
'Software'
'Sof'
'Ska'
'Sitz_'
'Similar_'
'Silva_'
'Sil'
'Sign'
'Siedlung'
'Sichtweise_'
'Sicherheitss'
'Sicherheitskräfte_'
'Shou'
'Shin'
'She_'
'Sharon_'
'Serbien_'
'Senkaku_'
'Sektors_'
'Seit'
'Sech'
'Seb'
'Scott'
'Schüler'
'Schwi'
'Schwerpunkt'
'Schwer'
'Schwellenmärkte'
'Schweiz_'
'Schweig'
'Schutzm'
'Schuldenerlass_'
'Schuld_'
'Schriftsteller_'
'School_'
'Schme'
'Schli'
'Schic'
'Schat'
'Sar'
'Sad'
'Sachs_'
'SZ'
'SOEs_'
'SI'
'Rückschlag_'
'Rückg'
'Rückf'
'Rus'
'Rumsfeld_'
'Ros'
'Romney_'
'Romania'
'Rohstoffpreise'
'Rob'
'Right_'
'Richter_'
'Richard_'
'Revol'
'Resultate'
'Rest_'
'Rest'
'Reserven_'
'Republikan'
'Repres'
'Renzi_'
'Relat'
'Rekord'
'Reise_'
'Reichtum'
'Regulierungsbe'
'Regulierungen_'
'Regierungsvertreter'
'Regierungspo'
'Regierungsführung_'
'Referendum'
'Ref'
'Reco'
'Rechtfertigung_'
'Rech'
'Rece'
'Reb'
'Rauche'
'Rating'
'Rati'
'Rangliste'
'Rand'
'Radi'
'RC_'
'Quo'
'Quellen_'
'Qualifi'
'Qaddafi_'
'Putsch'
'Präsidentschaft_'
'Proze'
'Provin'
'Protokoll'
'Protektionismus_'
'Promi'
'Profit'
'Produkti'
'Prob'
'Privatisierung_'
'Privati'
'Private_'
'Prince'
'Prin'
'Presse'
'Premierminister'
'Premier_'
'Preisstabilität_'
'Pre'
'Prak'
'Pop'
'Poor_'
'Political'
'Politic'
'Planung'
'PiS_'
'Phänomen_'
'Philosophie'
'Phi'
'Phasen_'
'Pflicht'
'Peter'
'Peru_'
'Personal'
'Peripherie_'
'Peri'
'Perf'
'Pens'
'Pax_'
'Patent'
'Parti'
'Park'
'Papier'
'Palästina_'
'Pakt_'
'Pact_'
'PI'
'PH'
'PE'
'PC'
'Oz'
'Otherwise_'
'Other_'
'Osteuropa_'
'Optionen_'
'Oppositions'
'Open_'
'Old'
'Oktober_'
'Offenheit_'
'Offen'
'Oder_'
'Oberste_'
'Oberfläch'
'Ober'
'OR'
'OP'
'Nort'
'Norm'
'Norden'
'Norda'
'None_'
'Nob'
'Niger'
'Niemand_'
'Niedergang_'
'Nicaragua_'
'Nev'
'Neus'
'Neig'
'Need'
'Nazis'
'Natur_'
'Nationalstaat'
'Napoleon'
'Nahrung_'
'Nachw'
'Nacht'
'Nachrichten_'
'Nachfrage'
'Nachfolge'
'NE_'
'NE'
'Möglich'
'Mächte'
'Must'
'Murdoch'
'Moto'
'Moti'
'Moral'
'Mold'
'Modernisierung_'
'Misstrauen'
'Misch'
'Ministerp'
'Minderheit_'
'Mikro'
'Microsoft_'
'Mexik'
'Methoden_'
'Mess'
'Mensch'
'Mengen_'
'Meine'
'Meer_'
'Medizin_'
'Medikamenten'
'Medic'
'Media'
'Maßst'
'Maßnahme'
'Max'
'Mauer'
'Masse_'
'Martin_'
'Marshall_'
'Mars'
'Marktwirtschaft_'
'Marke'
'Mark'
'Marg'
'Mani'
'Manchmal_'
'Mali'
'Machtv'
'Machts'
'Machthaber_'
'Maastricht_'
'MU'
'MP'
'MDG'
'MADRID_'
'Lou'
'Liste_'
'Link'
'Liebe'
'Licht'
'Libye'
'Liberalisierung_'
'Letztere'
'Lern'
'Leistungsbilanzübersch'
'Lehrer_'
'Lehr'
'Lehman_'
'Legitim'
'Legislat'
'Leg'
'Lee'
'Larry_'
'Lag'
'Laden_'
'LAN'
'Kürze'
'Könnte'
'Königreich'
'Kunden_'
'Kulturen_'
'Kuba'
'Kriteri'
'Kreditvergabe_'
'Kreditb'
'Kreditaufnahme_'
'Kredit_'
'Krank'
'Kra'
'Kosov'
'Korr'
'Korea'
'Kora'
'Kopenhagen_'
'Kop'
'Koordination_'
'Konzern'
'Konver'
'Kontinent'
'Kong'
'Konflikts_'
'Konflikten_'
'Komp'
'Kommiss'
'Koloni'
'Kol'
'Koizumi_'
'Kofi_'
'Kn'
'Klimas'
'Klima_'
'Kissinger'
'Kil'
'Ki_'
'Key'
'Kenya_'
'Kennedy_'
'Ken'
'Kein'
'Kaukasus_'
'Kauf_'
'Kat'
'Karte'
'Kapitalst'
'Kapitalmärkte_'
'Kapitalflüsse'
'Kap'
'Kaliforni'
'Kali'
'Kaczyński_'
'KI'
'Jung'
'Juncker_'
'Jordan'
'Jong_'
'Jiang_'
'Jia'
'Ji'
'Jerusalem_'
'Jed'
'Japaner_'
'Jac'
'J_'
'JP'
'Italien'
'Italian_'
'Ironi'
'Irland_'
'Irish_'
'Irak'
'Investmentbank'
'Interna'
'Intern'
'Interess'
'Inten'
'Integr'
'Instanz_'
'Information_'
'Industri'
'Individu'
'Impuls'
'Impfstoff'
'Impf'
'Imperi'
'Imag'
'Illus'
'Il_'
'Ideologie'
'Ide'
'IL'
'Hände_'
'Hyper'
'Hut_'
'Hunger_'
'Hung'
'Human'
'Hoffnungen_'
'Histor'
'Hir'
'Hinwe'
'Hindernisse_'
'Hindernis'
'Hilfe'
'Heu'
'Herb'
'Herausgeber_'
'Heil'
'Hav'
'Haushaltsk'
'Hau'
'Hatoyama_'
'Hari'
'Handelspartner_'
'Handelsb'
'Haft'
'H_'
'HAVEN_'
'Guatemala'
'Guard'
'Grundlagen'
'Growth_'
'Griechen'
'Grenz'
'Green_'
'Governor_'
'Governance_'
'Gore_'
'Globali'
'Gleichheit'
'Glauben_'
'Gipfeltreffen_'
'Gipfels_'
'Gipfel_'
'Ghana'
'Gewissen'
'Gewinne'
'Gewicht_'
'Gewer'
'Gewa'
'Gesichts'
'Gesi'
'Gesetzes'
'Geschäft'
'Geschwindigkeit'
'Geräte'
'Generalsekretär_'
'General'
'Gener'
'Gene_'
'Gend'
'Genau_'
'Gehirn_'
'Gehalt'
'Gegenwart_'
'Gefü'
'Gefängniss'
'Gefängnis_'
'Gefangen'
'Gebä'
'Gebieten_'
'Gebiet_'
'Geb'
'Gazastreifen_'
'Garantie_'
'Garantie'
'Gal'
'GW_'
'GU'
'GE'
'Führungsp'
'Führer'
'Führ'
'Fö'
'Fußball'
'Fut'
'Fur'
'Funktions'
'Fund'
'Friedensprozess_'
'Fremdfinanzierung_'
'François_'
'Franklin'
'Frankfurt_'
'Franc'
'Fortunately_'
'Forscher'
'Foo'
'Folge'
'Fokus_'
'Fluss_'
'Finn'
'Finland_'
'Finanzwesen_'
'Finanzt'
'Finanzministeri'
'Finanzma'
'Finanzi'
'Finance_'
'Few_'
'Fer'
'Feinde_'
'Feind'
'Fatah_'
'Familie_'
'Falls'
'Fah'
'FC'
'FBI_'
'Extremis'
'Expan'
'Exe'
'Evi'
'Eva'
'Euros_'
'Eurobonds_'
'Establishment_'
'Erträge_'
'Ersten_'
'Ersparnissen_'
'Ersparnisse_'
'Errichtung_'
'Erre'
'Ernährung'
'Erne'
'Ern'
'Erkrank'
'Erinnerung'
'Erf'
'Ereignis'
'Erde_'
'Erdb'
'Equally_'
'Epide'
'Epi'
'Entwurf_'
'Entwicklungsb'
'Entschlossenheit_'
'Entscheidungsfindung_'
'Energiever'
'Energiet'
'Energiequelle'
'Emp'
'Elect'
'Einst'
'Einschätzung_'
'Einsatz'
'Einr'
'Einma'
'Einkommens_'
'Einheits'
'Einh'
'Einf'
'Einer_'
'Einbez'
'Eigentum_'
'Eigenschaft'
'Ehr'
'Ehe'
'Edu'
'Economy_'
'Econom'
'Ec'
'EP'
'ED'
'EC'
'EB'
'Dutzend'
'Drogen_'
'Drogen'
'Dosi'
'Don_'
'Direktinvestition'
'Direkt'
'Diplomat'
'Diktat'
'Derartige_'
'Denkweise'
'Demonstration'
'Dem'
'Deal'
'Dasselbe_'
'Darau'
'Dank_'
'DP'
'DNA_'
'Cyprus_'
'Cro'
'Cris'
'Contin'
'Contain'
'Constitution_'
'Cons'
'Cond'
'Computer_'
'Computer'
'Comm'
'Colo'
'Coll'
'Club'
'Claude_'
'Christ'
'Chr'
'Chil'
'Chen'
'Chef'
'Charles_'
'Charakter'
'Cath'
'Cash'
'Case'
'California_'
'CH_'
'Bür'
'Bücher'
'Business'
'Burma_'
'Bundesstaate'
'Bundesre'
'Bundeskanzlerin_'
'Budget'
'Brüs'
'Brust'
'Brad'
'Botschafter'
'Bor'
'Boom_'
'Bomba'
'Bolivien'
'Bolivia_'
'Bol'
'Boden'
'Boa'
'Blockade_'
'Blase'
'Bindung'
'Bin'
'Bhutan'
'Bez'
'Beweise_'
'Beurteilung_'
'Besuch'
'Besteuerung'
'Beste_'
'Bestand'
'Besser'
'Beson'
'Besi'
'Beschäftigte'
'Berü'
'Beru'
'Berechnung'
'Bemüh'
'Belgium_'
'Belgi'
'Belarus'
'Beitritt_'
'Beispiele_'
'Bein'
'Behauptung_'
'Behandlung'
'Begriff'
'Begin'
'Befugnisse_'
'Befr'
'Beendigung_'
'Base'
'Barri'
'Banker'
'Bankensystem'
'Baltic_'
'Balkans'
'Bagdad'
'Back_'
'BRÜSSEL_'
'BOJ_'
'BM'
'BERLIN_'
'BERKELEY_'
'BC'
'Außens'
'Außenministeri'
'Autorität_'
'Auswe'
'Auswahl'
'Australien_'
'Aust'
'Ausschluss_'
'Aussage'
'Auslands'
'Ausgang'
'Ausgabe_'
'Ausg'
'Ausbreitung'
'Aug'
'Aufw'
'Aufstand'
'Aufst'
'Aufrechterhaltung_'
'Aufheb'
'Aufg'
'Auff'
'Att'
'Atla'
'Asse'
'Asians_'
'Armenian'
'Armeni'
'Argumen'
'Argentiniens_'
'Are_'
'Archi'
'Arbeitsmarkt'
'Arbeitskräften_'
'Arbeitgeber_'
'Any'
'Anwendung_'
'Antworten_'
'Anti_'
'Anteil'
'Anpassung'
'Anna'
'Anleihe'
'Anla'
'Angriff'
'Angola_'
'Angele'
'Andererseits_'
'Andere_'
'Ana'
'Amo'
'Amer'
'Ambition'
'Alter_'
'Alter'
'Allianz_'
'Allge'
'Alles_'
'Allen_'
'Allein'
'Ali_'
'Algeria_'
'Algeri'
'Alex'
'Albani'
'Ahmadinedschad_'
'Ahm'
'Age_'
'Afrikaner'
'Afghan'
'Add'
'Achse_'
'Ach'
'Abst'
'Absicht_'
'Absicht'
'Absi'
'Abe'
'Abdul'
'Abd'
'AR'
'AB'
'68'
'66'
'51_'
'47'
'44'
'41_'
'38'
'36'
'27_'
'27'
'250'
'21'
'2017_'
'1996_'
'199'
'1988_'
'1970s_'
'1960'
'1950er_'
'1940_'
'16'
'14'
'05'
'...'
'," _'
'% '
'"'
'!”'
'!'
' – _'
'  '
' ($_'
' %'
' $ _'
'€'
'‘'
'х'
'ф'
'К'
'И'
'Г'
'ł'
'Ä'
' '
'''
'#'
'’'
'Ж'
'š'
'ê'
':'
'щ'
'Я'
'Е'
'Д'
'ó'
'ñ'
'º'
'·'
'°'
'`'
'%'
'$'
''
'−'
'„'
'П'
'Л'
'А'
'ε'
'ï'
'è'
'ã'
'â'
'Ü'
'¥'
'£'
'黵'
'鰀'
'鋘'
'鋓'
'遝'
'●'
'•'
'‚'
'—'
'Қ'
'Ғ'
'ц'
'Э'
'Ш'
'О'
'œ'
'ń'
'ć'
'ú'
'í'
'Ô'
'Ã'
'Á'
'²'
''
'\'
'['
'+'
'ç'
'à'
'«'
'>'
'<'
'/'
'('
'&'
